#include "magic_wand_model_data.h"

// We need to keep the data array aligned on some architectures.
#ifdef __has_attribute
#define HAVE_ATTRIBUTE(x) __has_attribute(x)
#else
#define HAVE_ATTRIBUTE(x) 0
#endif
#if HAVE_ATTRIBUTE(aligned) || (defined(__GNUC__) && !defined(__clang__))
#define DATA_ALIGN_ATTRIBUTE __attribute__((aligned(4)))
#else
#define DATA_ALIGN_ATTRIBUTE
#endif

const unsigned char g_magic_wand_model_data[] DATA_ALIGN_ATTRIBUTE = {
  // Paste the data of the char array in `src/model.cc` here
  0x08, 0x00, 0x00, 0x00, 0x54, 0x46, 0x4c, 0x33, 0x62, 0xff, 0xff, 0xff,
  0x03, 0x00, 0x00, 0x00, 0x10, 0x00, 0x00, 0x00, 0x24, 0x00, 0x00, 0x00,
  0x78, 0x00, 0x00, 0x00, 0x24, 0x00, 0x00, 0x00, 0x05, 0x00, 0x00, 0x00,
  0x78, 0x05, 0x00, 0x00, 0xb0, 0x04, 0x00, 0x00, 0xe0, 0x02, 0x00, 0x00,
  0x60, 0x02, 0x00, 0x00, 0x54, 0x01, 0x00, 0x00, 0x01, 0x00, 0x00, 0x00,
  0x78, 0x00, 0x00, 0x00, 0x13, 0x00, 0x00, 0x00, 0x18, 0x30, 0x00, 0x00,
  0x14, 0x30, 0x00, 0x00, 0x20, 0x2f, 0x00, 0x00, 0xa8, 0x2e, 0x00, 0x00,
  0x3c, 0x2e, 0x00, 0x00, 0xec, 0x11, 0x00, 0x00, 0x98, 0x10, 0x00, 0x00,
  0xbc, 0x0e, 0x00, 0x00, 0x60, 0x06, 0x00, 0x00, 0xfc, 0x05, 0x00, 0x00,
  0x78, 0x05, 0x00, 0x00, 0xec, 0x2f, 0x00, 0x00, 0xe8, 0x2f, 0x00, 0x00,
  0xe4, 0x2f, 0x00, 0x00, 0xe0, 0x2f, 0x00, 0x00, 0xdc, 0x2f, 0x00, 0x00,
  0xd8, 0x2f, 0x00, 0x00, 0xd4, 0x2f, 0x00, 0x00, 0xd0, 0x2f, 0x00, 0x00,
  0x0f, 0x00, 0x00, 0x00, 0x4d, 0x4c, 0x49, 0x52, 0x20, 0x43, 0x6f, 0x6e,
  0x76, 0x65, 0x72, 0x74, 0x65, 0x64, 0x2e, 0x00, 0x00, 0x00, 0x0e, 0x00,
  0x18, 0x00, 0x04, 0x00, 0x08, 0x00, 0x0c, 0x00, 0x10, 0x00, 0x14, 0x00,
  0x0e, 0x00, 0x00, 0x00, 0x14, 0x00, 0x00, 0x00, 0x5c, 0x00, 0x00, 0x00,
  0x60, 0x00, 0x00, 0x00, 0x64, 0x00, 0x00, 0x00, 0x84, 0x00, 0x00, 0x00,
  0x12, 0x00, 0x00, 0x00, 0x48, 0x2f, 0x00, 0x00, 0xe4, 0x2e, 0x00, 0x00,
  0x3c, 0x2e, 0x00, 0x00, 0xd8, 0x2d, 0x00, 0x00, 0x70, 0x2d, 0x00, 0x00,
  0x1c, 0x11, 0x00, 0x00, 0xc0, 0x0f, 0x00, 0x00, 0xe4, 0x0d, 0x00, 0x00,
  0xa0, 0x05, 0x00, 0x00, 0x3c, 0x05, 0x00, 0x00, 0xb0, 0x04, 0x00, 0x00,
  0xe8, 0x03, 0x00, 0x00, 0x38, 0x03, 0x00, 0x00, 0xa4, 0x02, 0x00, 0x00,
  0x10, 0x02, 0x00, 0x00, 0x90, 0x01, 0x00, 0x00, 0xfc, 0x00, 0x00, 0x00,
  0x80, 0x00, 0x00, 0x00, 0x01, 0x00, 0x00, 0x00, 0x00, 0x00, 0x00, 0x00,
  0x01, 0x00, 0x00, 0x00, 0x11, 0x00, 0x00, 0x00, 0x08, 0x00, 0x00, 0x00,
  0x1c, 0x04, 0x00, 0x00, 0x58, 0x03, 0x00, 0x00, 0xc8, 0x02, 0x00, 0x00,
  0x24, 0x02, 0x00, 0x00, 0xac, 0x01, 0x00, 0x00, 0x10, 0x01, 0x00, 0x00,
  0x94, 0x00, 0x00, 0x00, 0x10, 0x00, 0x00, 0x00, 0x04, 0x00, 0x00, 0x00,
  0x6d, 0x61, 0x69, 0x6e, 0x00, 0x00, 0x00, 0x00, 0x8e, 0xff, 0xff, 0xff,
  0x00, 0x00, 0x00, 0x09, 0x04, 0x00, 0x00, 0x00, 0x1c, 0x00, 0x00, 0x00,
  0x10, 0x00, 0x00, 0x00, 0x04, 0x00, 0x00, 0x00, 0x0a, 0xd2, 0xff, 0xff,
  0x00, 0x00, 0x80, 0x3f, 0x01, 0x00, 0x00, 0x00, 0x11, 0x00, 0x00, 0x00,
  0x01, 0x00, 0x00, 0x00, 0x10, 0x00, 0x00, 0x00, 0xf6, 0xfb, 0xff, 0xff,
  0x00, 0x00, 0x00, 0x19, 0x01, 0x00, 0x00, 0x00, 0x8a, 0xd1, 0xff, 0xff,
  0x10, 0x00, 0x00, 0x00, 0x12, 0x00, 0x00, 0x00, 0x14, 0x00, 0x00, 0x00,
  0x20, 0x00, 0x00, 0x00, 0x02, 0x00, 0x00, 0x00, 0x01, 0x00, 0x00, 0x00,
  0x04, 0x00, 0x00, 0x00, 0x08, 0x00, 0x00, 0x00, 0x49, 0x64, 0x65, 0x6e,
  0x74, 0x69, 0x74, 0x79, 0x00, 0x00, 0x00, 0x00, 0xc4, 0xd1, 0xff, 0xff,
  0x00, 0x00, 0x0e, 0x00, 0x18, 0x00, 0x08, 0x00, 0x0c, 0x00, 0x10, 0x00,
  0x07, 0x00, 0x14, 0x00, 0x0e, 0x00, 0x00, 0x00, 0x00, 0x00, 0x00, 0x08,
  0x03, 0x00, 0x00, 0x00, 0x18, 0x00, 0x00, 0x00, 0x0c, 0x00, 0x00, 0x00,
  0x04, 0x00, 0x00, 0x00, 0x98, 0xd1, 0xff, 0xff, 0x01, 0x00, 0x00, 0x00,
  0x10, 0x00, 0x00, 0x00, 0x03, 0x00, 0x00, 0x00, 0x0f, 0x00, 0x00, 0x00,
  0x05, 0x00, 0x00, 0x00, 0x02, 0x00, 0x00, 0x00, 0x02, 0xd2, 0xff, 0xff,
  0x10, 0x00, 0x00, 0x00, 0x11, 0x00, 0x00, 0x00, 0x14, 0x00, 0x00, 0x00,
  0x30, 0x00, 0x00, 0x00, 0x02, 0x00, 0x00, 0x00, 0x01, 0x00, 0x00, 0x00,
  0x04, 0x00, 0x00, 0x00, 0x1a, 0x00, 0x00, 0x00, 0x73, 0x65, 0x71, 0x75,
  0x65, 0x6e, 0x74, 0x69, 0x61, 0x6c, 0x2f, 0x64, 0x65, 0x6e, 0x73, 0x65,
  0x5f, 0x31, 0x2f, 0x42, 0x69, 0x61, 0x73, 0x41, 0x64, 0x64, 0x00, 0x00,
  0xf4, 0xd1, 0xff, 0xff, 0xd6, 0xfd, 0xff, 0xff, 0x00, 0x00, 0x00, 0x08,
  0x03, 0x00, 0x00, 0x00, 0x24, 0x00, 0x00, 0x00, 0x18, 0x00, 0x00, 0x00,
  0x0c, 0x00, 0x00, 0x00, 0x00, 0x00, 0x06, 0x00, 0x08, 0x00, 0x07, 0x00,
  0x06, 0x00, 0x00, 0x00, 0x00, 0x00, 0x00, 0x01, 0x01, 0x00, 0x00, 0x00,
  0x0f, 0x00, 0x00, 0x00, 0x03, 0x00, 0x00, 0x00, 0x0e, 0x00, 0x00, 0x00,
  0x04, 0x00, 0x00, 0x00, 0x01, 0x00, 0x00, 0x00, 0xfe, 0xfc, 0xff, 0xff,
  0x00, 0x00, 0x00, 0x09, 0x01, 0x00, 0x00, 0x00, 0x92, 0xd2, 0xff, 0xff,
  0x10, 0x00, 0x00, 0x00, 0x10, 0x00, 0x00, 0x00, 0x14, 0x00, 0x00, 0x00,
  0x2c, 0x00, 0x00, 0x00, 0x02, 0x00, 0x00, 0x00, 0x01, 0x00, 0x00, 0x00,
  0x10, 0x00, 0x00, 0x00, 0x15, 0x00, 0x00, 0x00, 0x73, 0x65, 0x71, 0x75,
  0x65, 0x6e, 0x74, 0x69, 0x61, 0x6c, 0x2f, 0x64, 0x65, 0x6e, 0x73, 0x65,
  0x2f, 0x52, 0x65, 0x6c, 0x75, 0x00, 0x00, 0x00, 0xd8, 0xd2, 0xff, 0xff,
  0x00, 0x00, 0x0a, 0x00, 0x10, 0x00, 0x04, 0x00, 0x08, 0x00, 0x0c, 0x00,
  0x0a, 0x00, 0x00, 0x00, 0x02, 0x00, 0x00, 0x00, 0x10, 0x00, 0x00, 0x00,
  0x04, 0x00, 0x00, 0x00, 0x01, 0x00, 0x00, 0x00, 0x0e, 0x00, 0x00, 0x00,
  0x02, 0x00, 0x00, 0x00, 0x0d, 0x00, 0x00, 0x00, 0x03, 0x00, 0x00, 0x00,
  0x7a, 0xfd, 0xff, 0xff, 0x00, 0x00, 0x00, 0x16, 0x01, 0x00, 0x00, 0x00,
  0x0e, 0xd3, 0xff, 0xff, 0x10, 0x00, 0x00, 0x00, 0x0f, 0x00, 0x00, 0x00,
  0x14, 0x00, 0x00, 0x00, 0x30, 0x00, 0x00, 0x00, 0x02, 0x00, 0x00, 0x00,
  0x01, 0x00, 0x00, 0x00, 0x70, 0x00, 0x00, 0x00, 0x1a, 0x00, 0x00, 0x00,
  0x73, 0x65, 0x71, 0x75, 0x65, 0x6e, 0x74, 0x69, 0x61, 0x6c, 0x2f, 0x66,
  0x6c, 0x61, 0x74, 0x74, 0x65, 0x6e, 0x2f, 0x52, 0x65, 0x73, 0x68, 0x61,
  0x70, 0x65, 0x00, 0x00, 0x00, 0xd3, 0xff, 0xff, 0xe2, 0xfe, 0xff, 0xff,
  0x00, 0x00, 0x00, 0x05, 0x01, 0x00, 0x00, 0x00, 0x38, 0x00, 0x00, 0x00,
  0x2c, 0x00, 0x00, 0x00, 0x14, 0x00, 0x00, 0x00, 0x00, 0x00, 0x0e, 0x00,
  0x14, 0x00, 0x00, 0x00, 0x10, 0x00, 0x0c, 0x00, 0x08, 0x00, 0x04, 0x00,
  0x0e, 0x00, 0x00, 0x00, 0x03, 0x00, 0x00, 0x00, 0x01, 0x00, 0x00, 0x00,
  0x03, 0x00, 0x00, 0x00, 0x01, 0x00, 0x00, 0x00, 0x01, 0x00, 0x00, 0x00,
  0x0d, 0x00, 0x00, 0x00, 0x01, 0x00, 0x00, 0x00, 0x0c, 0x00, 0x00, 0x00,
  0x9e, 0xd3, 0xff, 0xff, 0x10, 0x00, 0x00, 0x00, 0x0e, 0x00, 0x00, 0x00,
  0x1c, 0x00, 0x00, 0x00, 0x40, 0x00, 0x00, 0x00, 0x04, 0x00, 0x00, 0x00,
  0x01, 0x00, 0x00, 0x00, 0x07, 0x00, 0x00, 0x00, 0x01, 0x00, 0x00, 0x00,
  0x10, 0x00, 0x00, 0x00, 0x22, 0x00, 0x00, 0x00, 0x73, 0x65, 0x71, 0x75,
  0x65, 0x6e, 0x74, 0x69, 0x61, 0x6c, 0x2f, 0x6d, 0x61, 0x78, 0x5f, 0x70,
  0x6f, 0x6f, 0x6c, 0x69, 0x6e, 0x67, 0x32, 0x64, 0x5f, 0x31, 0x2f, 0x4d,
  0x61, 0x78, 0x50, 0x6f, 0x6f, 0x6c, 0x00, 0x00, 0xa0, 0xd3, 0xff, 0xff,
  0xc2, 0xfe, 0xff, 0xff, 0x00, 0x00, 0x00, 0x01, 0x24, 0x00, 0x00, 0x00,
  0x18, 0x00, 0x00, 0x00, 0x04, 0x00, 0x00, 0x00, 0xb4, 0xfe, 0xff, 0xff,
  0x01, 0x00, 0x00, 0x00, 0x01, 0x00, 0x00, 0x00, 0x00, 0x00, 0x00, 0x01,
  0x01, 0x00, 0x00, 0x00, 0x0c, 0x00, 0x00, 0x00, 0x03, 0x00, 0x00, 0x00,
  0x0b, 0x00, 0x00, 0x00, 0x07, 0x00, 0x00, 0x00, 0x09, 0x00, 0x00, 0x00,
  0x2e, 0xd4, 0xff, 0xff, 0x10, 0x00, 0x00, 0x00, 0x0d, 0x00, 0x00, 0x00,
  0x1c, 0x00, 0x00, 0x00, 0x2c, 0x00, 0x00, 0x00, 0x04, 0x00, 0x00, 0x00,
  0x01, 0x00, 0x00, 0x00, 0x15, 0x00, 0x00, 0x00, 0x01, 0x00, 0x00, 0x00,
  0x10, 0x00, 0x00, 0x00, 0x0c, 0x00, 0x00, 0x00, 0x74, 0x66, 0x6c, 0x2e,
  0x63, 0x6f, 0x6e, 0x76, 0x5f, 0x32, 0x64, 0x31, 0x00, 0x00, 0x00, 0x00,
  0x74, 0xd4, 0xff, 0xff, 0x00, 0x00, 0x0e, 0x00, 0x1a, 0x00, 0x08, 0x00,
  0x0c, 0x00, 0x10, 0x00, 0x07, 0x00, 0x14, 0x00, 0x0e, 0x00, 0x00, 0x00,
  0x00, 0x00, 0x00, 0x05, 0x01, 0x00, 0x00, 0x00, 0x3c, 0x00, 0x00, 0x00,
  0x30, 0x00, 0x00, 0x00, 0x14, 0x00, 0x00, 0x00, 0x00, 0x00, 0x0e, 0x00,
  0x18, 0x00, 0x17, 0x00, 0x10, 0x00, 0x0c, 0x00, 0x08, 0x00, 0x04, 0x00,
  0x0e, 0x00, 0x00, 0x00, 0x03, 0x00, 0x00, 0x00, 0x03, 0x00, 0x00, 0x00,
  0x03, 0x00, 0x00, 0x00, 0x03, 0x00, 0x00, 0x00, 0x00, 0x00, 0x00, 0x01,
  0x01, 0x00, 0x00, 0x00, 0x0b, 0x00, 0x00, 0x00, 0x01, 0x00, 0x00, 0x00,
  0x0a, 0x00, 0x00, 0x00, 0x46, 0xff, 0xff, 0xff, 0x00, 0x00, 0x00, 0x11,
  0x01, 0x00, 0x00, 0x00, 0xda, 0xd4, 0xff, 0xff, 0x10, 0x00, 0x00, 0x00,
  0x0c, 0x00, 0x00, 0x00, 0x1c, 0x00, 0x00, 0x00, 0x40, 0x00, 0x00, 0x00,
  0x04, 0x00, 0x00, 0x00, 0x01, 0x00, 0x00, 0x00, 0x15, 0x00, 0x00, 0x00,
  0x01, 0x00, 0x00, 0x00, 0x08, 0x00, 0x00, 0x00, 0x20, 0x00, 0x00, 0x00,
  0x73, 0x65, 0x71, 0x75, 0x65, 0x6e, 0x74, 0x69, 0x61, 0x6c, 0x2f, 0x6d,
  0x61, 0x78, 0x5f, 0x70, 0x6f, 0x6f, 0x6c, 0x69, 0x6e, 0x67, 0x32, 0x64,
  0x2f, 0x4d, 0x61, 0x78, 0x50, 0x6f, 0x6f, 0x6c, 0x00, 0x00, 0x00, 0x00,
  0x34, 0xd5, 0xff, 0xff, 0x00, 0x00, 0x0e, 0x00, 0x14, 0x00, 0x00, 0x00,
  0x08, 0x00, 0x0c, 0x00, 0x07, 0x00, 0x10, 0x00, 0x0e, 0x00, 0x00, 0x00,
  0x00, 0x00, 0x00, 0x01, 0x30, 0x00, 0x00, 0x00, 0x24, 0x00, 0x00, 0x00,
  0x10, 0x00, 0x00, 0x00, 0x0c, 0x00, 0x10, 0x00, 0x00, 0x00, 0x04, 0x00,
  0x08, 0x00, 0x0f, 0x00, 0x0c, 0x00, 0x00, 0x00, 0x01, 0x00, 0x00, 0x00,
  0x01, 0x00, 0x00, 0x00, 0x00, 0x00, 0x00, 0x01, 0x01, 0x00, 0x00, 0x00,
  0x0a, 0x00, 0x00, 0x00, 0x03, 0x00, 0x00, 0x00, 0x00, 0x00, 0x00, 0x00,
  0x06, 0x00, 0x00, 0x00, 0x08, 0x00, 0x00, 0x00, 0x00, 0x00, 0x0a, 0x00,
  0x0c, 0x00, 0x07, 0x00, 0x00, 0x00, 0x08, 0x00, 0x0a, 0x00, 0x00, 0x00,
  0x00, 0x00, 0x00, 0x03, 0x01, 0x00, 0x00, 0x00, 0x9e, 0xd5, 0xff, 0xff,
  0x10, 0x00, 0x00, 0x00, 0x0b, 0x00, 0x00, 0x00, 0x1c, 0x00, 0x00, 0x00,
  0x28, 0x00, 0x00, 0x00, 0x04, 0x00, 0x00, 0x00, 0x01, 0x00, 0x00, 0x00,
  0x40, 0x00, 0x00, 0x00, 0x03, 0x00, 0x00, 0x00, 0x08, 0x00, 0x00, 0x00,
  0x0b, 0x00, 0x00, 0x00, 0x74, 0x66, 0x6c, 0x2e, 0x63, 0x6f, 0x6e, 0x76,
  0x5f, 0x32, 0x64, 0x00, 0x88, 0xd5, 0xff, 0xff, 0x7e, 0xd6, 0xff, 0xff,
  0x04, 0x00, 0x00, 0x00, 0x40, 0x00, 0x00, 0x00, 0x6b, 0x1e, 0xca, 0x3e,
  0x0d, 0x1a, 0x0f, 0xbe, 0x43, 0xba, 0x2b, 0x3e, 0xdb, 0x1b, 0x8f, 0xbd,
  0x33, 0xf0, 0x91, 0x3e, 0x2b, 0x6c, 0x65, 0xbf, 0xdd, 0x98, 0xfe, 0x3f,
  0xfc, 0x34, 0xe0, 0xbf, 0xc5, 0x70, 0x8f, 0x3f, 0xc2, 0x3f, 0xab, 0xbf,
  0xde, 0x64, 0x06, 0xbf, 0xcf, 0x2b, 0xd0, 0x3f, 0x37, 0x8e, 0x8e, 0xbf,
  0xa8, 0x8a, 0x61, 0x3f, 0x64, 0xf7, 0x2c, 0x3f, 0x58, 0x4a, 0x96, 0xbe,
  0x26, 0xd6, 0xff, 0xff, 0x10, 0x00, 0x00, 0x00, 0x0a, 0x00, 0x00, 0x00,
  0x10, 0x00, 0x00, 0x00, 0x20, 0x00, 0x00, 0x00, 0x01, 0x00, 0x00, 0x00,
  0x10, 0x00, 0x00, 0x00, 0x0d, 0x00, 0x00, 0x00, 0x73, 0x74, 0x64, 0x2e,
  0x63, 0x6f, 0x6e, 0x73, 0x74, 0x61, 0x6e, 0x74, 0x31, 0x00, 0x00, 0x00,
  0x08, 0xd6, 0xff, 0xff, 0xfe, 0xd6, 0xff, 0xff, 0x04, 0x00, 0x00, 0x00,
  0x20, 0x00, 0x00, 0x00, 0xf7, 0x6c, 0xb4, 0xbf, 0x27, 0x3a, 0xc8, 0xbf,
  0xa1, 0x6f, 0x31, 0xc0, 0x0e, 0xce, 0xb3, 0xbf, 0x7a, 0x6e, 0x31, 0xc0,
  0x58, 0x86, 0xc4, 0xbf, 0xe3, 0x6d, 0x3f, 0xbf, 0xe9, 0x66, 0x2b, 0xc0,
  0x86, 0xd6, 0xff, 0xff, 0x10, 0x00, 0x00, 0x00, 0x09, 0x00, 0x00, 0x00,
  0x10, 0x00, 0x00, 0x00, 0x20, 0x00, 0x00, 0x00, 0x01, 0x00, 0x00, 0x00,
  0x08, 0x00, 0x00, 0x00, 0x0c, 0x00, 0x00, 0x00, 0x73, 0x74, 0x64, 0x2e,
  0x63, 0x6f, 0x6e, 0x73, 0x74, 0x61, 0x6e, 0x74, 0x00, 0x00, 0x00, 0x00,
  0x68, 0xd6, 0xff, 0xff, 0x5e, 0xd7, 0xff, 0xff, 0x04, 0x00, 0x00, 0x00,
  0x00, 0x08, 0x00, 0x00, 0x8e, 0x8b, 0xe3, 0x3e, 0xd9, 0xdd, 0x1e, 0x3e,
  0x5a, 0x9d, 0xc0, 0xbd, 0x2b, 0x0a, 0x8a, 0x3d, 0x23, 0x2d, 0x0b, 0xbd,
  0xc2, 0x83, 0xd1, 0xbd, 0x4d, 0x36, 0x00, 0x3e, 0xfe, 0xdf, 0x9b, 0xbe,
  0x4e, 0xef, 0xe5, 0xbc, 0x8f, 0x64, 0xc2, 0x3c, 0x24, 0x21, 0x9b, 0xbd,
  0x57, 0xf2, 0x2d, 0xbd, 0xe2, 0xa1, 0xca, 0xbd, 0xc3, 0xbc, 0x0c, 0x3e,
  0x88, 0xb7, 0x3e, 0xbc, 0xdd, 0x80, 0xa7, 0xbe, 0x69, 0x42, 0xd6, 0x3e,
  0xe3, 0x52, 0x5f, 0x3e, 0x93, 0xd8, 0x05, 0xbe, 0x79, 0x0f, 0xe1, 0x3c,
  0x54, 0x63, 0xff, 0xbd, 0x9f, 0x23, 0xbe, 0xbd, 0xd2, 0x7e, 0x15, 0xbe,
  0xe7, 0x44, 0x9c, 0xbe, 0x98, 0x8c, 0x1a, 0x3f, 0x9c, 0xec, 0x6b, 0x38,
  0x02, 0x04, 0x08, 0xbd, 0xf6, 0xf8, 0xa3, 0xbd, 0xd5, 0x08, 0xff, 0xbd,
  0x5a, 0x0d, 0xd3, 0x3d, 0xc5, 0x48, 0x99, 0x3d, 0x72, 0x93, 0x84, 0xbe,
  0x78, 0x88, 0x80, 0xbd, 0xf8, 0x69, 0x3e, 0xbe, 0xb3, 0xe6, 0xe7, 0x3e,
  0xc3, 0x16, 0x83, 0xbe, 0x8d, 0xca, 0x5d, 0x3c, 0xe0, 0xb8, 0xd6, 0xbe,
  0xd8, 0xf8, 0x82, 0x3c, 0xda, 0x6f, 0x02, 0xbe, 0xc0, 0xc1, 0xe4, 0x3d,
  0x60, 0xa6, 0xe8, 0x3d, 0x0a, 0x96, 0x2f, 0xbe, 0x97, 0x8f, 0xa7, 0x3d,
  0x14, 0x9c, 0xb9, 0x3d, 0x1a, 0xa9, 0x93, 0xbe, 0xde, 0xca, 0x37, 0xbd,
  0x7d, 0x1c, 0x90, 0xbd, 0x62, 0xb1, 0x78, 0x3e, 0x47, 0x25, 0xd4, 0x3e,
  0xe8, 0x4a, 0x78, 0xbe, 0x38, 0xf2, 0x37, 0x3e, 0x81, 0xa7, 0x2f, 0xbe,
  0x4b, 0xcb, 0x11, 0xbe, 0x8d, 0xea, 0x6a, 0xbe, 0x14, 0xa7, 0x9a, 0xbd,
  0x70, 0xb3, 0x2d, 0xbe, 0x69, 0x7b, 0xb4, 0x3b, 0xfc, 0xb8, 0x33, 0xbe,
  0x1a, 0xb4, 0x9d, 0x3d, 0xe8, 0xba, 0x2f, 0xbe, 0xb9, 0x55, 0x31, 0xbe,
  0x08, 0x83, 0x8f, 0xbe, 0x3c, 0x1c, 0x5b, 0x3e, 0xc6, 0x84, 0xf4, 0xbd,
  0x80, 0x2f, 0x80, 0xbd, 0x65, 0xaf, 0x10, 0xbd, 0x91, 0x0d, 0x99, 0xbd,
  0x9f, 0x7c, 0xfb, 0xbc, 0xc6, 0xcc, 0xfd, 0x3e, 0x6b, 0xf7, 0xf2, 0x3d,
  0x18, 0x5c, 0x8e, 0x3c, 0x43, 0x62, 0x2d, 0xbe, 0x9e, 0x8c, 0x2e, 0xbe,
  0xe6, 0x2c, 0x0f, 0xbe, 0xa2, 0x37, 0xad, 0xbd, 0x81, 0x29, 0xb2, 0xbd,
  0xba, 0x89, 0x95, 0xbd, 0x6b, 0xf5, 0x1c, 0x3e, 0xe6, 0xac, 0xa7, 0xbd,
  0xe2, 0x89, 0x80, 0x3e, 0xbe, 0x7a, 0xba, 0xbd, 0x13, 0x86, 0xce, 0xbd,
  0x98, 0x1d, 0xda, 0xbb, 0xd8, 0x46, 0x76, 0xbc, 0x5f, 0x4a, 0x0f, 0xbe,
  0x3d, 0x62, 0x4a, 0xbe, 0x82, 0xba, 0x0c, 0xbd, 0xea, 0x0f, 0xad, 0x3d,
  0x01, 0xa9, 0x84, 0x3d, 0xea, 0x7e, 0x31, 0x3c, 0xf8, 0x52, 0x72, 0xbe,
  0x50, 0x6c, 0x02, 0x3e, 0x8a, 0x18, 0x86, 0xbe, 0xd2, 0xac, 0x0c, 0xbf,
  0x35, 0xc2, 0x69, 0xbc, 0x9f, 0x21, 0x1e, 0x3e, 0xd0, 0xd0, 0x72, 0xbe,
  0xa6, 0x4c, 0xc0, 0x3d, 0x40, 0x36, 0xae, 0x3c, 0x11, 0x16, 0x0a, 0xbe,
  0x6b, 0xcb, 0x64, 0xbe, 0xcc, 0xac, 0xb2, 0x3d, 0x81, 0x31, 0x37, 0xbe,
  0x35, 0xc7, 0xd5, 0x3d, 0xb3, 0x54, 0xb6, 0xbe, 0x85, 0x2b, 0x3d, 0xbe,
  0xbc, 0x28, 0x19, 0xbe, 0x6f, 0x01, 0x21, 0xbd, 0x58, 0xb0, 0xc1, 0x3d,
  0x6b, 0xb5, 0xb9, 0xbe, 0x5a, 0x69, 0x19, 0xbe, 0xc1, 0x77, 0x45, 0x3d,
  0xf9, 0x93, 0x91, 0xbe, 0xd1, 0xf7, 0x33, 0x3e, 0x56, 0x74, 0x46, 0x3c,
  0x05, 0x31, 0xf0, 0x3d, 0x08, 0x5d, 0x8c, 0x3d, 0x9d, 0x64, 0xd8, 0x3d,
  0xeb, 0xa9, 0x2f, 0xbe, 0xd3, 0x4b, 0x8c, 0xbe, 0x70, 0x90, 0x4b, 0x3e,
  0x1c, 0x8e, 0x9d, 0xbe, 0x53, 0x13, 0x24, 0xbe, 0x7a, 0xf8, 0x49, 0xbe,
  0x05, 0x0c, 0x39, 0xbe, 0xb4, 0xd7, 0x17, 0x3c, 0x74, 0xdb, 0x9d, 0xbe,
  0xf8, 0x30, 0x97, 0x3e, 0x7e, 0xe9, 0x2c, 0xbe, 0xa8, 0xa5, 0x01, 0xbe,
  0xb3, 0xb0, 0x83, 0x3d, 0x70, 0x86, 0x42, 0xbe, 0xf5, 0x6f, 0x4c, 0xbd,
  0x12, 0x62, 0x07, 0xba, 0x0e, 0xa0, 0x06, 0xbc, 0x82, 0xd7, 0x97, 0xbe,
  0x21, 0x11, 0x5d, 0xbe, 0x5e, 0x51, 0xa1, 0xbe, 0xd2, 0xce, 0xb0, 0xbd,
  0x9d, 0x73, 0xbb, 0xbe, 0x67, 0xfb, 0x88, 0xbd, 0x30, 0xfe, 0x0d, 0xbe,
  0x8c, 0x71, 0xa5, 0x3c, 0xad, 0x4b, 0x4b, 0x3c, 0xc1, 0xf3, 0x32, 0x3d,
  0xa2, 0x22, 0x8d, 0xbe, 0x85, 0xe5, 0x13, 0xbe, 0x50, 0x6b, 0xbc, 0xbe,
  0xbb, 0xc7, 0x29, 0xbd, 0x02, 0x84, 0x2d, 0xbd, 0x92, 0x11, 0xe0, 0xbc,
  0x0e, 0xdd, 0x64, 0xbc, 0xdc, 0xc3, 0x97, 0xbd, 0x51, 0x2a, 0x3d, 0xbd,
  0x31, 0x7a, 0x02, 0x3f, 0xc7, 0xe2, 0xe0, 0xbd, 0x75, 0xb6, 0x92, 0xbd,
  0x27, 0xd0, 0x13, 0xbd, 0xc6, 0x9c, 0x25, 0xbd, 0x13, 0xe4, 0x57, 0xbc,
  0xfd, 0xb0, 0x45, 0x3d, 0xb4, 0x46, 0xf6, 0xbd, 0x56, 0xbe, 0x37, 0x3f,
  0x71, 0x2f, 0xcf, 0xbe, 0x48, 0xb6, 0xe7, 0xbd, 0xf4, 0xf6, 0x5a, 0xbe,
  0x3e, 0x75, 0xe2, 0xbd, 0x4c, 0x04, 0x96, 0xbd, 0x85, 0xc3, 0x3f, 0x3e,
  0xea, 0x47, 0x78, 0x3d, 0x99, 0x32, 0xbf, 0xbd, 0xba, 0xa6, 0xe2, 0x3c,
  0xcf, 0x26, 0x95, 0xbd, 0xdd, 0xda, 0x0e, 0xbe, 0x26, 0xb2, 0xe1, 0xbd,
  0x9d, 0x91, 0x3d, 0xbd, 0x53, 0xcc, 0x37, 0xbe, 0x71, 0x60, 0x69, 0xbd,
  0x91, 0x41, 0xa8, 0xbd, 0xff, 0x91, 0x7f, 0x3c, 0x26, 0x58, 0x83, 0xbc,
  0xa9, 0x48, 0xfe, 0x3b, 0xef, 0xdb, 0x4d, 0xbd, 0xab, 0x64, 0xb4, 0x3b,
  0x06, 0xfa, 0x22, 0xbe, 0xe0, 0xcd, 0xf0, 0x3c, 0xb6, 0x58, 0x9d, 0xbd,
  0x65, 0x98, 0x01, 0x3d, 0x0d, 0xe8, 0x36, 0xbd, 0x17, 0xb3, 0x7c, 0xbc,
  0x4d, 0xf3, 0x4e, 0xbd, 0xcd, 0xe8, 0xe0, 0x3d, 0x9a, 0x90, 0x30, 0xbd,
  0xbe, 0xe5, 0x5d, 0x3c, 0x79, 0xf8, 0x37, 0x3e, 0x4b, 0xfe, 0x6a, 0x3d,
  0xaf, 0xd9, 0x1c, 0x3c, 0x59, 0x78, 0x69, 0x3e, 0xef, 0x74, 0xbd, 0xbd,
  0xcb, 0x6f, 0xd3, 0xbd, 0x14, 0x1d, 0xfd, 0xbd, 0xf1, 0xbc, 0x12, 0xbe,
  0x0f, 0x25, 0x8a, 0xbd, 0xa5, 0x27, 0x85, 0xbd, 0x9b, 0xae, 0x6d, 0xbc,
  0x52, 0xde, 0x82, 0xbe, 0xfc, 0xbd, 0x80, 0xbe, 0x36, 0x84, 0x04, 0xbe,
  0x8d, 0xb0, 0x49, 0x3d, 0x16, 0x09, 0xee, 0xbc, 0x8a, 0x76, 0xe4, 0xbc,
  0x49, 0x09, 0xeb, 0x3c, 0xbf, 0x46, 0x24, 0xbe, 0x16, 0x59, 0xe3, 0x3d,
  0x9d, 0x0a, 0x59, 0xbe, 0x99, 0x5a, 0x48, 0xbe, 0x87, 0xe7, 0x0b, 0xbf,
  0x75, 0x34, 0xf4, 0x3c, 0xa9, 0xf9, 0x76, 0xbe, 0x02, 0x12, 0x97, 0x3d,
  0x88, 0x33, 0x67, 0xbe, 0x4c, 0xaf, 0x75, 0xbe, 0xcb, 0xe3, 0x96, 0xbe,
  0xd2, 0xe1, 0x87, 0x3c, 0xb5, 0xcc, 0x22, 0x3e, 0xba, 0x3b, 0x96, 0xbe,
  0xe7, 0x20, 0xb4, 0x3e, 0x93, 0x78, 0xbd, 0xbe, 0x85, 0xc3, 0x54, 0xbd,
  0xd5, 0x5f, 0x23, 0xbe, 0xa8, 0x93, 0xa8, 0xbd, 0x1b, 0x72, 0x7e, 0x3d,
  0xf6, 0xec, 0x3b, 0x3e, 0x40, 0x88, 0x9e, 0xbe, 0xde, 0xe2, 0x8c, 0xbd,
  0x06, 0xcc, 0x8e, 0xbe, 0xb5, 0x56, 0x84, 0xbd, 0xd4, 0xbb, 0x59, 0xbe,
  0x99, 0xd5, 0xd0, 0xbd, 0xc7, 0xb7, 0x5a, 0xbd, 0xf2, 0xa4, 0x5e, 0x3e,
  0x53, 0xe0, 0x25, 0x3e, 0x05, 0x70, 0x3c, 0x3e, 0x12, 0x27, 0xa4, 0x3e,
  0xe6, 0xa2, 0x1f, 0xbe, 0x30, 0x37, 0x37, 0xbe, 0x0c, 0x1b, 0x8b, 0x3c,
  0x47, 0x0e, 0xd3, 0x3c, 0x5a, 0xa7, 0x95, 0xbb, 0xd3, 0x87, 0x7a, 0x3e,
  0x45, 0xab, 0x43, 0xbf, 0xde, 0xf9, 0xa3, 0x3d, 0xc3, 0xad, 0x21, 0xbe,
  0x0b, 0x73, 0x6a, 0xbd, 0xf7, 0x91, 0x72, 0x3c, 0x34, 0xe2, 0x8a, 0xbd,
  0xe6, 0x33, 0x35, 0xbe, 0x80, 0x5a, 0xfa, 0xbe, 0xeb, 0x02, 0x8a, 0xbd,
  0x3b, 0xe0, 0x9e, 0xbe, 0x3b, 0x16, 0x70, 0x3d, 0xbb, 0xb4, 0xbe, 0x3e,
  0x1b, 0x27, 0xe0, 0xbb, 0x1f, 0x62, 0xb5, 0x3d, 0xdf, 0xf5, 0x7e, 0xbd,
  0xdc, 0x12, 0x09, 0xbf, 0x19, 0x2c, 0x5d, 0xbc, 0x85, 0x3b, 0x8e, 0xbe,
  0x68, 0x7c, 0x9d, 0xbd, 0x6a, 0x49, 0x36, 0xbd, 0x31, 0x08, 0xd7, 0xbc,
  0xce, 0xa8, 0x4f, 0x3e, 0xea, 0xfb, 0x35, 0x3e, 0x67, 0xb0, 0xee, 0xbd,
  0x22, 0x9d, 0xb0, 0xbd, 0x1c, 0xae, 0x25, 0x3e, 0x15, 0x3d, 0xc0, 0xbe,
  0x2b, 0xfc, 0xa6, 0xbe, 0xe1, 0x20, 0x77, 0x3c, 0x5d, 0xa1, 0x6e, 0x3e,
  0xa4, 0x53, 0xe4, 0x3b, 0x04, 0x2c, 0x20, 0x3e, 0x76, 0xac, 0xa2, 0xbe,
  0xbb, 0x66, 0x60, 0x3e, 0x70, 0xd5, 0xc4, 0xbd, 0xc0, 0x63, 0x82, 0xbe,
  0xce, 0x6f, 0x68, 0x3d, 0x91, 0xe4, 0xb3, 0x39, 0x9c, 0x41, 0x91, 0x3e,
  0x81, 0xc6, 0x57, 0x3d, 0x8c, 0xfd, 0xab, 0x3d, 0x3d, 0x0b, 0x07, 0xbe,
  0x54, 0x05, 0x10, 0x3e, 0x60, 0x19, 0xae, 0x3d, 0x2e, 0x89, 0xd8, 0xbd,
  0xce, 0x90, 0x43, 0xbe, 0x6a, 0x4a, 0xba, 0xbe, 0x12, 0x06, 0xde, 0xbc,
  0xb6, 0xb6, 0xc8, 0x3d, 0x09, 0xe6, 0x93, 0x3d, 0x1a, 0x76, 0xe7, 0xbb,
  0x38, 0x2d, 0x03, 0xbe, 0x3d, 0x78, 0x0b, 0x3e, 0xc5, 0xc6, 0x55, 0xbe,
  0x2c, 0xdc, 0x06, 0x3e, 0xf5, 0x4b, 0x1c, 0x3e, 0x4a, 0xfd, 0x1d, 0xbe,
  0xe5, 0xdb, 0x2f, 0x3e, 0x88, 0xf7, 0x1a, 0xbd, 0xb4, 0x04, 0x17, 0xbd,
  0x26, 0xdf, 0x58, 0x3d, 0xad, 0x22, 0x16, 0xbe, 0x4a, 0x72, 0x80, 0xbd,
  0x94, 0x72, 0xc4, 0xbd, 0x2c, 0x39, 0xb5, 0xbd, 0xa5, 0x36, 0x1b, 0xbd,
  0xeb, 0x55, 0xa0, 0xbd, 0xd8, 0x6f, 0xf4, 0x3d, 0xbb, 0xdd, 0x97, 0xbd,
  0x44, 0x3d, 0x3a, 0xbc, 0xdf, 0x23, 0x47, 0x3e, 0xb2, 0x70, 0x05, 0xbe,
  0x13, 0xb1, 0x8e, 0xbc, 0x98, 0x5e, 0x56, 0x3b, 0xb9, 0x54, 0x11, 0xbe,
  0x8d, 0xd4, 0x46, 0xbe, 0xa0, 0x64, 0x7b, 0xbd, 0x47, 0x97, 0xa5, 0xbd,
  0xb9, 0x3a, 0x76, 0xbd, 0x37, 0x15, 0x6a, 0xbd, 0x4a, 0x6e, 0x90, 0xbd,
  0x1b, 0xf4, 0x20, 0xbd, 0x81, 0x7f, 0x40, 0xbe, 0xd0, 0x93, 0x80, 0xbe,
  0x78, 0x60, 0x13, 0x3f, 0x57, 0x0e, 0x26, 0x3e, 0x81, 0xc7, 0x40, 0xbd,
  0xff, 0x33, 0x0e, 0xba, 0x71, 0x2c, 0x20, 0x3c, 0xf5, 0x7b, 0x19, 0xbc,
  0x2a, 0xd8, 0x60, 0xbe, 0xe9, 0xb5, 0x19, 0xbe, 0xae, 0xda, 0x4e, 0xbd,
  0x47, 0x65, 0x90, 0xbc, 0x3b, 0x06, 0xcf, 0xbb, 0xd4, 0x64, 0x47, 0x3c,
  0xb1, 0xdc, 0xd5, 0x3c, 0x11, 0x22, 0xb9, 0x3c, 0x50, 0xca, 0x6b, 0xbd,
  0xbd, 0x85, 0xcb, 0xbc, 0x00, 0xa3, 0x61, 0xbd, 0x56, 0x95, 0x45, 0xbf,
  0xed, 0xec, 0x13, 0xbf, 0x11, 0xfe, 0x11, 0xbf, 0xf2, 0x2e, 0xc5, 0xbe,
  0xe2, 0x32, 0xc4, 0xbe, 0x34, 0x73, 0x06, 0xbf, 0xbf, 0x44, 0x1d, 0xbf,
  0xe9, 0x40, 0xe5, 0xbe, 0x35, 0xa5, 0x2a, 0xbe, 0x49, 0xf9, 0x4c, 0xbe,
  0x6c, 0xbb, 0xa8, 0x3d, 0x23, 0x16, 0x70, 0xbd, 0xa2, 0xec, 0x1c, 0x3e,
  0x4e, 0xa6, 0xbd, 0x3e, 0x28, 0x29, 0x87, 0x3e, 0xa0, 0xe5, 0xa9, 0xbd,
  0xb2, 0x83, 0x95, 0x3d, 0x03, 0x39, 0x80, 0x3e, 0x0e, 0x9d, 0x08, 0x3d,
  0xcb, 0xc3, 0xa5, 0xbd, 0x21, 0x35, 0x27, 0x3e, 0x4b, 0x24, 0x9a, 0xbc,
  0xbd, 0x08, 0x4f, 0x3e, 0xf6, 0x41, 0xd5, 0xbd, 0x1d, 0x91, 0x24, 0xbe,
  0xee, 0xe2, 0x4b, 0xbd, 0xab, 0x7a, 0x98, 0xbc, 0x54, 0x5c, 0x8d, 0xbd,
  0xa1, 0x43, 0x87, 0xbd, 0x82, 0xf4, 0x98, 0xbd, 0xb4, 0x85, 0x8f, 0xbc,
  0x63, 0x3f, 0x09, 0xbe, 0x96, 0x39, 0x00, 0x3d, 0x61, 0x44, 0xbe, 0xbd,
  0x92, 0x1c, 0xa8, 0xbe, 0x92, 0xe9, 0xfb, 0xbc, 0xaf, 0x6c, 0x47, 0xbe,
  0xb5, 0x97, 0xbd, 0x3e, 0x46, 0x08, 0x50, 0x3e, 0x81, 0x53, 0x61, 0x3d,
  0x94, 0x3d, 0x8b, 0x3e, 0x47, 0x0b, 0x2a, 0x3d, 0xc7, 0x63, 0xf5, 0xbd,
  0x15, 0x03, 0x8e, 0x3b, 0xfd, 0x4d, 0x29, 0xbe, 0x3c, 0x1c, 0x8b, 0xbd,
  0x37, 0xda, 0x25, 0x3d, 0x78, 0x35, 0xfb, 0x3c, 0xb5, 0xe2, 0x89, 0x3d,
  0x2f, 0xa8, 0xcb, 0x3a, 0xfc, 0x63, 0xa7, 0x3b, 0x05, 0x38, 0xfd, 0xbc,
  0x74, 0x89, 0xab, 0xbc, 0x32, 0x4c, 0x9c, 0xbd, 0x17, 0x98, 0x81, 0xbd,
  0x03, 0xd2, 0x10, 0xbd, 0x13, 0x92, 0x38, 0x3c, 0x4d, 0x89, 0x84, 0xbd,
  0x50, 0x50, 0xd8, 0xbc, 0xf7, 0xe9, 0xab, 0xbd, 0x32, 0xd6, 0xdd, 0xbc,
  0x24, 0xbe, 0x67, 0xbd, 0xd6, 0xed, 0x97, 0xbd, 0xb6, 0x18, 0x0a, 0xbd,
  0x2e, 0xb5, 0x20, 0xbf, 0x9b, 0xa8, 0xa0, 0xbe, 0xa7, 0x19, 0x38, 0xbf,
  0xfa, 0x63, 0xee, 0xbe, 0xba, 0x4e, 0xe6, 0xbe, 0x17, 0x37, 0xc5, 0xbe,
  0x73, 0x2a, 0x0b, 0xbf, 0x7c, 0xdf, 0xd6, 0xbe, 0xea, 0xf0, 0xd6, 0xbc,
  0x32, 0x49, 0xb8, 0xbe, 0x38, 0xdc, 0x88, 0x3e, 0xe5, 0xcd, 0x81, 0xbc,
  0xbd, 0x8c, 0x12, 0x3e, 0x1b, 0x1f, 0xf3, 0x3d, 0x9f, 0x6c, 0xae, 0x3d,
  0x8f, 0x00, 0x57, 0xbd, 0x59, 0x1e, 0xd4, 0xbe, 0x9a, 0x60, 0x78, 0x3c,
  0xbc, 0xdc, 0xb1, 0x3d, 0x10, 0xfc, 0x96, 0xbd, 0xce, 0x28, 0x09, 0xbe,
  0xd1, 0x07, 0xb8, 0x3d, 0x54, 0xbe, 0x17, 0xbe, 0xbf, 0xcb, 0x34, 0xbd,
  0x0b, 0xf9, 0x3c, 0x3e, 0x35, 0x16, 0xf3, 0x3d, 0x1a, 0xf8, 0x08, 0xbd,
  0xc5, 0x0f, 0x06, 0x3d, 0x78, 0xd9, 0x30, 0xbd, 0xa0, 0x94, 0x6d, 0x3e,
  0x4b, 0xa5, 0x29, 0x3e, 0x00, 0x91, 0x81, 0xbc, 0x32, 0xa8, 0x2d, 0xbd,
  0xea, 0x53, 0x87, 0xbe, 0x94, 0xf6, 0x5d, 0x3c, 0x5a, 0x26, 0xea, 0xbd,
  0x2b, 0x39, 0xd7, 0xb9, 0x99, 0x05, 0xfc, 0xba, 0x1b, 0x67, 0xc8, 0x3a,
  0x0f, 0xed, 0x12, 0xbe, 0xad, 0x85, 0x26, 0xbe, 0x34, 0xc5, 0xed, 0xbd,
  0xa2, 0x5a, 0xb1, 0x3c, 0x8c, 0xc3, 0x0a, 0xbe, 0xea, 0x68, 0x72, 0xbb,
  0x4d, 0xd7, 0x37, 0xbe, 0x4b, 0x1c, 0x10, 0xbe, 0x4a, 0x67, 0xa9, 0xbd,
  0x31, 0x93, 0x0f, 0x3e, 0x56, 0x1d, 0xbf, 0x3c, 0x57, 0xad, 0x47, 0xbc,
  0xf9, 0xe6, 0x2a, 0xbb, 0x37, 0x73, 0xbf, 0x3d, 0x5c, 0x83, 0x05, 0x3f,
  0x13, 0x26, 0x6e, 0x3d, 0x69, 0x47, 0x46, 0xbc, 0x00, 0x1e, 0x96, 0xbe,
  0x64, 0x0f, 0x25, 0xbf, 0x06, 0x22, 0x00, 0xbe, 0x18, 0xd7, 0x37, 0xbf,
  0xd7, 0x14, 0x75, 0xbe, 0x42, 0xff, 0xda, 0xbe, 0x79, 0x14, 0x65, 0xbe,
  0x91, 0x78, 0xbb, 0xbe, 0x13, 0x35, 0xf8, 0x3d, 0x9e, 0xba, 0x83, 0xbe,
  0x48, 0x4d, 0x14, 0xbe, 0x47, 0xee, 0xf7, 0xbd, 0xea, 0x1b, 0x74, 0xbe,
  0x36, 0x40, 0xe1, 0x3c, 0xf9, 0x58, 0x42, 0x3e, 0x40, 0x8b, 0xc7, 0xbd,
  0x3e, 0x4c, 0x50, 0xbe, 0xcd, 0x52, 0x0f, 0xbc, 0x2a, 0x0b, 0x37, 0xbe,
  0x4f, 0x43, 0xfb, 0xbe, 0x1d, 0xce, 0x10, 0xbe, 0x6c, 0x9a, 0x0b, 0xbe,
  0x36, 0x73, 0x92, 0xbe, 0xe0, 0xd6, 0x07, 0xbe, 0xc2, 0xec, 0x5e, 0x3e,
  0x58, 0xfe, 0xb8, 0xbe, 0xf4, 0x07, 0xfa, 0xbd, 0x7e, 0xbe, 0x86, 0xbe,
  0x06, 0x27, 0x27, 0xbe, 0xe9, 0xb5, 0x74, 0xbc, 0x9b, 0x66, 0x17, 0x3d,
  0xf5, 0xe4, 0x57, 0x3d, 0x3b, 0x1f, 0x85, 0xbe, 0xd2, 0x91, 0x96, 0x3d,
  0x22, 0x13, 0xd1, 0xbe, 0x0a, 0x3e, 0x74, 0xbe, 0x89, 0x90, 0xa3, 0xbe,
  0x06, 0x2e, 0x54, 0xbe, 0x6b, 0xb8, 0xb1, 0xbc, 0x8a, 0x9b, 0xe8, 0xbd,
  0xc6, 0xde, 0xff, 0xff, 0x10, 0x00, 0x00, 0x00, 0x08, 0x00, 0x00, 0x00,
  0x1c, 0x00, 0x00, 0x00, 0x38, 0x00, 0x00, 0x00, 0x04, 0x00, 0x00, 0x00,
  0x10, 0x00, 0x00, 0x00, 0x04, 0x00, 0x00, 0x00, 0x01, 0x00, 0x00, 0x00,
  0x08, 0x00, 0x00, 0x00, 0x1a, 0x00, 0x00, 0x00, 0x73, 0x65, 0x71, 0x75,
  0x65, 0x6e, 0x74, 0x69, 0x61, 0x6c, 0x2f, 0x63, 0x6f, 0x6e, 0x76, 0x32,
  0x64, 0x5f, 0x31, 0x2f, 0x43, 0x6f, 0x6e, 0x76, 0x32, 0x44, 0x00, 0x00,
  0xc0, 0xde, 0xff, 0xff, 0xb6, 0xdf, 0xff, 0xff, 0x04, 0x00, 0x00, 0x00,
  0x80, 0x01, 0x00, 0x00, 0x38, 0x62, 0xae, 0x3e, 0x78, 0xed, 0x3a, 0xbe,
  0xbc, 0x86, 0xb4, 0x3e, 0xc5, 0xa7, 0x96, 0xbd, 0xe4, 0x57, 0x3b, 0x3d,
  0xb0, 0x41, 0x9e, 0xbc, 0x9e, 0x38, 0x19, 0xbe, 0x57, 0xe9, 0xd2, 0x3d,
  0xe3, 0xe3, 0x2e, 0xbe, 0xb5, 0xfe, 0xdc, 0xbd, 0x20, 0xf5, 0xd0, 0x3c,
  0xb1, 0xe3, 0x0d, 0xbe, 0x1a, 0xf6, 0xa6, 0x3d, 0x30, 0xb3, 0xf1, 0xbc,
  0x0f, 0xcb, 0x03, 0x3d, 0x05, 0x1c, 0x60, 0x3e, 0x40, 0x33, 0x8e, 0x3e,
  0x10, 0x34, 0x37, 0x3d, 0x8f, 0xc9, 0x8a, 0x3d, 0xa6, 0xf9, 0x2b, 0xbe,
  0x04, 0xde, 0xfa, 0xbd, 0x10, 0xd4, 0x9c, 0xbe, 0xfc, 0x76, 0x5e, 0xbd,
  0x6c, 0x87, 0x9e, 0xbb, 0x9c, 0x83, 0x77, 0x3e, 0xf9, 0xd6, 0xda, 0x3d,
  0xa0, 0x9c, 0x95, 0xbd, 0x84, 0xfa, 0xfe, 0x3d, 0x41, 0xd1, 0xde, 0xbb,
  0x5d, 0x3d, 0x0e, 0x3b, 0x62, 0x60, 0x32, 0xbc, 0x94, 0x03, 0x8f, 0xbd,
  0x00, 0xe8, 0xb8, 0x3c, 0x77, 0x2e, 0x92, 0x3e, 0xb1, 0xb2, 0x73, 0xbc,
  0xb8, 0x7b, 0xad, 0xbc, 0xc4, 0x82, 0xbb, 0xbe, 0xaf, 0xd3, 0x82, 0xbc,
  0xf2, 0x53, 0x87, 0x3d, 0xdf, 0xcb, 0xa6, 0xbd, 0x08, 0xf2, 0x11, 0x3e,
  0x12, 0x4c, 0x05, 0x3e, 0xec, 0xdf, 0x27, 0x3c, 0x6c, 0xd5, 0xd8, 0xbd,
  0x67, 0x77, 0xa4, 0xbe, 0x4d, 0xee, 0x61, 0x3e, 0x2a, 0xa1, 0x6d, 0xbd,
  0xb6, 0x4b, 0x6e, 0xbe, 0x06, 0x54, 0x10, 0x3d, 0x39, 0x7d, 0xbb, 0x3d,
  0x89, 0xd9, 0x95, 0xbd, 0xd7, 0xe2, 0x9f, 0x3e, 0xb0, 0xf6, 0xff, 0xbd,
  0x8d, 0x51, 0x9b, 0x3d, 0x21, 0x06, 0x34, 0x3e, 0x0a, 0xab, 0xd8, 0x3d,
  0x3f, 0x9b, 0x96, 0xbc, 0x87, 0xcd, 0x51, 0xbd, 0x01, 0x79, 0x61, 0x3c,
  0xa2, 0xf2, 0x46, 0x3c, 0x5b, 0xcd, 0x6d, 0xbd, 0x6f, 0x2f, 0x8e, 0xbe,
  0x80, 0x95, 0xc6, 0xbc, 0x88, 0xb1, 0xe0, 0x3e, 0x6d, 0xf7, 0x66, 0xbe,
  0xcf, 0xe5, 0x19, 0xbc, 0x29, 0xe9, 0x50, 0x3e, 0xf4, 0x29, 0xda, 0xba,
  0x81, 0x6c, 0x7a, 0xbd, 0xd0, 0x07, 0x91, 0xbd, 0x20, 0xa7, 0xac, 0x3d,
  0x4e, 0x8f, 0xd6, 0xbd, 0xb0, 0x26, 0x5f, 0x3e, 0xb1, 0xd6, 0x7d, 0xbe,
  0x52, 0xc0, 0xfa, 0x3a, 0xcc, 0x6b, 0x6d, 0x3e, 0xb8, 0x19, 0x0f, 0xbe,
  0xf1, 0x25, 0x85, 0x3b, 0x4a, 0x36, 0xfb, 0x3d, 0x4b, 0x7b, 0x8a, 0x3c,
  0x31, 0xa7, 0xf8, 0xbc, 0x40, 0x99, 0x6b, 0xbd, 0xbb, 0x8a, 0x34, 0x3e,
  0x2e, 0x93, 0x03, 0xbe, 0x59, 0xbf, 0x07, 0xbe, 0x57, 0x55, 0x46, 0x3c,
  0xdf, 0xf8, 0x19, 0xbe, 0x2f, 0xe8, 0x14, 0xbc, 0x3e, 0x82, 0x35, 0xbd,
  0x77, 0x68, 0x99, 0xbc, 0xb5, 0x18, 0xaf, 0x3c, 0x0c, 0x90, 0xee, 0x3d,
  0xc2, 0x15, 0xc3, 0x3d, 0x31, 0x55, 0x2c, 0xbd, 0xe5, 0x94, 0x5b, 0x3d,
  0x78, 0xab, 0x7b, 0x3e, 0x9e, 0xe0, 0xff, 0xff, 0x10, 0x00, 0x00, 0x00,
  0x07, 0x00, 0x00, 0x00, 0x1c, 0x00, 0x00, 0x00, 0x38, 0x00, 0x00, 0x00,
  0x04, 0x00, 0x00, 0x00, 0x08, 0x00, 0x00, 0x00, 0x04, 0x00, 0x00, 0x00,
  0x03, 0x00, 0x00, 0x00, 0x01, 0x00, 0x00, 0x00, 0x18, 0x00, 0x00, 0x00,
  0x73, 0x65, 0x71, 0x75, 0x65, 0x6e, 0x74, 0x69, 0x61, 0x6c, 0x2f, 0x63,
  0x6f, 0x6e, 0x76, 0x32, 0x64, 0x2f, 0x43, 0x6f, 0x6e, 0x76, 0x32, 0x44,
  0x00, 0x00, 0x00, 0x00, 0x98, 0xe0, 0xff, 0xff, 0x8e, 0xe1, 0xff, 0xff,
  0x04, 0x00, 0x00, 0x00, 0x00, 0x01, 0x00, 0x00, 0x8d, 0x72, 0xb3, 0xbb,
  0xf1, 0x33, 0x2d, 0xbe, 0x7f, 0xbf, 0x4d, 0x3e, 0xa0, 0xcf, 0x19, 0xbe,
  0xf4, 0xdf, 0x84, 0xbe, 0x68, 0xef, 0x9d, 0x3d, 0x40, 0xd7, 0xc3, 0xbe,
  0x32, 0x32, 0x41, 0x3e, 0xee, 0xdc, 0xb3, 0x3d, 0x34, 0x5f, 0x82, 0x3e,
  0x93, 0x6f, 0xf4, 0xbe, 0xcd, 0x95, 0x2a, 0xbe, 0x00, 0x1e, 0xd4, 0xbd,
  0xb9, 0x11, 0x45, 0x3d, 0x2d, 0x13, 0xf1, 0xbd, 0xfd, 0xc7, 0xe6, 0xbd,
  0xf2, 0x85, 0x3f, 0x3c, 0x50, 0x54, 0xcc, 0xbd, 0x2b, 0x44, 0xb1, 0xbc,
  0x77, 0xfd, 0xe7, 0x3d, 0x09, 0xdd, 0xd2, 0xbd, 0xae, 0x95, 0x8c, 0x3e,
  0x29, 0xe2, 0xad, 0x3e, 0x6d, 0xc4, 0xe5, 0x3d, 0x68, 0x59, 0x6f, 0x3e,
  0xa9, 0xf0, 0xdf, 0x3e, 0xa7, 0x8b, 0x3f, 0x3e, 0x24, 0xde, 0xf0, 0xbd,
  0x09, 0x28, 0xe8, 0xbd, 0xd6, 0x0e, 0xe5, 0xbb, 0x49, 0x4b, 0x76, 0x3d,
  0x75, 0xd2, 0x13, 0xbf, 0x75, 0x6a, 0x18, 0x3d, 0xc6, 0x8a, 0xa8, 0xbd,
  0xcb, 0x3d, 0x8d, 0xbe, 0x56, 0xea, 0x32, 0x3e, 0x31, 0xa0, 0x18, 0xbe,
  0x25, 0x91, 0xbf, 0x3d, 0x32, 0xa0, 0xa5, 0x3e, 0x8e, 0x05, 0x32, 0xbf,
  0xdb, 0x07, 0x20, 0x3e, 0x6b, 0xa0, 0xe9, 0x3e, 0xc9, 0x36, 0xaf, 0x3e,
  0xd9, 0xcd, 0xad, 0xbd, 0x0e, 0x42, 0x56, 0xbe, 0x89, 0x7d, 0xc6, 0xbe,
  0xa2, 0xa8, 0x0a, 0x3e, 0xa6, 0x74, 0x9e, 0xbe, 0x97, 0x66, 0x6f, 0x3d,
  0xc5, 0xad, 0x75, 0xbd, 0x78, 0x12, 0x19, 0x3e, 0x83, 0x2a, 0x04, 0x3e,
  0xd4, 0x31, 0x2a, 0xbe, 0xc3, 0xbb, 0xa8, 0x3e, 0x23, 0xf9, 0x8a, 0x3d,
  0xb7, 0x46, 0x13, 0x3e, 0x0f, 0x32, 0x34, 0x3e, 0x0a, 0x5f, 0xca, 0x3e,
  0x17, 0xaf, 0x90, 0xbe, 0x5f, 0x37, 0x82, 0xbd, 0xe7, 0xb6, 0x08, 0xbd,
  0xfb, 0x1b, 0xc8, 0xb9, 0x95, 0xe3, 0xbb, 0x3d, 0x3e, 0x61, 0x67, 0xbe,
  0xf6, 0xe1, 0xff, 0xff, 0x10, 0x00, 0x00, 0x00, 0x06, 0x00, 0x00, 0x00,
  0x14, 0x00, 0x00, 0x00, 0x30, 0x00, 0x00, 0x00, 0x02, 0x00, 0x00, 0x00,
  0x04, 0x00, 0x00, 0x00, 0x10, 0x00, 0x00, 0x00, 0x19, 0x00, 0x00, 0x00,
  0x73, 0x65, 0x71, 0x75, 0x65, 0x6e, 0x74, 0x69, 0x61, 0x6c, 0x2f, 0x64,
  0x65, 0x6e, 0x73, 0x65, 0x5f, 0x31, 0x2f, 0x4d, 0x61, 0x74, 0x4d, 0x75,
  0x6c, 0x00, 0x00, 0x00, 0xe8, 0xe1, 0xff, 0xff, 0xde, 0xe2, 0xff, 0xff,
  0x04, 0x00, 0x00, 0x00, 0x00, 0x1c, 0x00, 0x00, 0x23, 0x97, 0x28, 0x3d,
  0xa1, 0x50, 0x58, 0x3c, 0x62, 0x45, 0x3e, 0x3e, 0xfa, 0x34, 0x14, 0x3e,
  0x0f, 0x05, 0xc5, 0x3d, 0x37, 0xfa, 0x50, 0xbe, 0x11, 0x1c, 0xad, 0x3f,
  0x94, 0xa2, 0xd7, 0xbe, 0x24, 0x02, 0xc1, 0xbe, 0x7c, 0x0d, 0x2d, 0xbd,
  0x3d, 0xdc, 0x62, 0x3d, 0x40, 0x67, 0xdd, 0x3d, 0x27, 0x39, 0x18, 0x3e,
  0xa1, 0x6b, 0xf1, 0x3d, 0xe3, 0x0a, 0xcd, 0x3e, 0xdd, 0x78, 0x48, 0x3e,
  0x34, 0x1f, 0x8b, 0x3e, 0x39, 0x07, 0xe5, 0xbd, 0xe2, 0x1c, 0xa4, 0x3d,
  0x70, 0x78, 0xac, 0x3e, 0xad, 0x6a, 0xd5, 0x3c, 0x85, 0x12, 0x2b, 0xbb,
  0xcb, 0x39, 0x9d, 0x3f, 0x71, 0x60, 0x0b, 0xbe, 0xbe, 0x46, 0x6a, 0x3d,
  0x5f, 0x0c, 0x28, 0x3b, 0x32, 0x1e, 0x2c, 0xbd, 0x3d, 0x3e, 0x2f, 0xbe,
  0x86, 0xbf, 0x55, 0x3d, 0xc8, 0x7f, 0x80, 0xbd, 0xc7, 0xf8, 0x5e, 0xbd,
  0xdc, 0xa5, 0x16, 0x3e, 0xd9, 0x43, 0x07, 0xbe, 0x22, 0xfd, 0xc7, 0xbd,
  0x93, 0x52, 0x1b, 0xbe, 0xa3, 0x1f, 0x47, 0xbc, 0xf0, 0xf7, 0xf6, 0x3d,
  0xc9, 0x1c, 0x8e, 0x3d, 0xb3, 0xe4, 0xf3, 0x3d, 0x85, 0x0c, 0x9f, 0x3d,
  0xa0, 0xdb, 0x1b, 0xbd, 0x07, 0x9c, 0x6d, 0x3d, 0xa8, 0x61, 0x2d, 0x3e,
  0xa2, 0x2b, 0x51, 0xbe, 0x65, 0x90, 0xac, 0xbc, 0x83, 0x3b, 0x81, 0xbc,
  0xd6, 0x77, 0x46, 0xbd, 0x34, 0xfc, 0xec, 0x3d, 0x2a, 0xcc, 0xa0, 0x3e,
  0x23, 0x88, 0x11, 0xbd, 0x74, 0x67, 0xb1, 0xbe, 0xfc, 0xdc, 0x84, 0x3e,
  0xb8, 0xe5, 0x9e, 0x3e, 0x1c, 0xf3, 0xd2, 0xbc, 0x1b, 0x71, 0xa2, 0x3f,
  0x92, 0xff, 0x40, 0xbe, 0x13, 0xc9, 0x89, 0xbe, 0x74, 0x90, 0x89, 0x3d,
  0x79, 0x67, 0x1b, 0x3e, 0xa5, 0x1e, 0xaa, 0xbc, 0x9c, 0x35, 0xf4, 0xbd,
  0x8b, 0x0b, 0x84, 0x3e, 0x54, 0xf6, 0x3c, 0x3d, 0xe5, 0x85, 0xf3, 0xbc,
  0x28, 0xe2, 0x01, 0x3e, 0x44, 0xe1, 0x81, 0xbc, 0x0c, 0x03, 0xa2, 0xbe,
  0x5a, 0xbe, 0x49, 0x3e, 0x86, 0xe9, 0x02, 0xbc, 0x3e, 0x6d, 0xe2, 0xbd,
  0x0d, 0xa7, 0x90, 0x3f, 0x14, 0x9c, 0x38, 0xbf, 0x7c, 0xd3, 0x03, 0xbf,
  0xb0, 0xdd, 0x2f, 0x3d, 0x2e, 0x9e, 0x9e, 0x3c, 0x1e, 0xd0, 0x29, 0xbd,
  0x99, 0x1a, 0x9c, 0xbd, 0xec, 0x50, 0x6a, 0x3d, 0x5b, 0x73, 0x41, 0xbd,
  0x95, 0xfd, 0xed, 0x3a, 0xaa, 0x0c, 0xbd, 0x3d, 0xe1, 0xe2, 0x3f, 0xbe,
  0xdc, 0x24, 0x8f, 0xbe, 0x21, 0xfc, 0x20, 0x3e, 0xd7, 0x56, 0x68, 0xbc,
  0x29, 0x30, 0x82, 0xbd, 0xc6, 0xed, 0xa8, 0x3f, 0x25, 0x29, 0x47, 0xbe,
  0xea, 0x41, 0x48, 0xbe, 0x8a, 0x3e, 0x92, 0x3b, 0xae, 0x89, 0x96, 0x3c,
  0x68, 0xa2, 0xed, 0x3d, 0x51, 0xc3, 0x12, 0x3e, 0x91, 0xa8, 0x20, 0x3e,
  0xaf, 0x5d, 0xd2, 0x3d, 0x1c, 0x54, 0x09, 0x3e, 0x2f, 0x35, 0x17, 0x3e,
  0x27, 0xaf, 0x3f, 0xbe, 0x99, 0xd6, 0x48, 0xbc, 0xb6, 0xca, 0xde, 0xbc,
  0x78, 0x42, 0x83, 0xbd, 0x30, 0xe3, 0x90, 0xbd, 0xee, 0xc5, 0x78, 0x3e,
  0x5d, 0x6a, 0x89, 0xbe, 0xbc, 0xfe, 0xe5, 0xbd, 0xf8, 0xb1, 0xe1, 0xbc,
  0xad, 0x54, 0x0a, 0x3e, 0x50, 0xed, 0x86, 0x3e, 0x5b, 0x37, 0x9d, 0x3d,
  0xbf, 0xac, 0x25, 0xbe, 0x71, 0xb4, 0xcf, 0x3d, 0xed, 0x26, 0xe9, 0x3c,
  0xfe, 0xe5, 0x41, 0xbd, 0x47, 0xd7, 0x59, 0xbe, 0x0c, 0x99, 0xf1, 0xbd,
  0xd1, 0x5a, 0x24, 0x3e, 0xde, 0x3b, 0xa2, 0x3d, 0x2d, 0x93, 0xad, 0xbe,
  0xf9, 0xb4, 0x69, 0x3f, 0x19, 0x09, 0xf6, 0xbd, 0xaa, 0x1c, 0x84, 0xbe,
  0x0e, 0x29, 0xe5, 0x3c, 0xfe, 0x49, 0x0b, 0xbe, 0x49, 0x62, 0x9d, 0x3e,
  0x66, 0x6c, 0x85, 0xbd, 0x92, 0xb4, 0x28, 0x3e, 0x23, 0x84, 0xf4, 0x3d,
  0x53, 0xf2, 0xb0, 0x3e, 0x83, 0x21, 0x92, 0x3e, 0xef, 0x6a, 0xca, 0x3d,
  0x68, 0x78, 0x27, 0x3e, 0x31, 0x09, 0x20, 0x3e, 0x3d, 0xaa, 0xb4, 0x3e,
  0xcc, 0xa4, 0x21, 0x3e, 0xe9, 0xbd, 0xae, 0x3e, 0x98, 0x12, 0xa5, 0xbd,
  0x03, 0x3d, 0x6f, 0xbe, 0x51, 0xba, 0xc6, 0x3c, 0x1d, 0x2c, 0x3e, 0xbc,
  0xa5, 0x87, 0xca, 0xbd, 0xa0, 0x47, 0xe3, 0xbb, 0x9a, 0x1b, 0x70, 0x3d,
  0x83, 0x37, 0xb6, 0x3d, 0x5b, 0x68, 0x45, 0x3e, 0xf2, 0x9f, 0x24, 0x3e,
  0x04, 0x6e, 0x39, 0xbe, 0x3a, 0xb7, 0x9a, 0x3c, 0x05, 0x9c, 0x22, 0xbc,
  0xe9, 0x52, 0xa2, 0xbe, 0xf9, 0xd2, 0x18, 0x3e, 0x6c, 0x65, 0x29, 0x3e,
  0xa6, 0x7d, 0x20, 0x3e, 0x85, 0x01, 0x08, 0xbe, 0x55, 0x73, 0x05, 0x3d,
  0x9f, 0xc1, 0xe5, 0xbc, 0x52, 0x67, 0xd3, 0xbc, 0xa0, 0xff, 0xc9, 0xbc,
  0x14, 0xda, 0x99, 0xbd, 0x43, 0x94, 0x19, 0xbe, 0xcc, 0xd0, 0x36, 0xbe,
  0xcd, 0x6a, 0x92, 0x3e, 0x0b, 0x5f, 0x1b, 0x3e, 0xc4, 0x3c, 0x52, 0x3e,
  0x4a, 0x27, 0x87, 0x3e, 0x3f, 0xbf, 0x4c, 0xbd, 0x15, 0x51, 0xdb, 0x3d,
  0xa1, 0x43, 0xfd, 0x3e, 0x25, 0xdf, 0x65, 0xbe, 0xc8, 0x61, 0x12, 0x3d,
  0x07, 0x03, 0x1a, 0x3d, 0x8a, 0xc4, 0xbf, 0xbc, 0xb1, 0xaf, 0x89, 0xbc,
  0x70, 0x94, 0x73, 0x3d, 0xeb, 0x5b, 0xfb, 0x3d, 0x7a, 0x4f, 0xa3, 0xbd,
  0xf8, 0x93, 0x3f, 0x3e, 0x34, 0x5e, 0x94, 0x3e, 0x2d, 0x92, 0xd5, 0xbe,
  0x96, 0xea, 0x23, 0xbe, 0x6d, 0x71, 0x90, 0x3d, 0xf3, 0x95, 0x41, 0x3e,
  0xb7, 0x26, 0x3c, 0x3e, 0x64, 0xb4, 0x89, 0x3e, 0x3f, 0xae, 0x6d, 0xbe,
  0x16, 0x03, 0x10, 0xbf, 0x8f, 0x55, 0x85, 0x3b, 0x23, 0xf6, 0xb8, 0xbe,
  0x1a, 0x5f, 0x7b, 0x3a, 0xc6, 0x9d, 0xad, 0x3b, 0x0c, 0xb7, 0x8a, 0x3e,
  0xf2, 0x34, 0x9f, 0xbd, 0xe3, 0xec, 0x88, 0xbb, 0x0e, 0x50, 0x07, 0x3e,
  0xc2, 0xa7, 0x05, 0xbe, 0x57, 0xc3, 0xbb, 0xbd, 0xbb, 0x0b, 0x8b, 0xbd,
  0x23, 0xc3, 0x4f, 0xbc, 0xa0, 0xdf, 0x08, 0xbd, 0x9e, 0xf3, 0x30, 0xbf,
  0xb0, 0x6f, 0xed, 0xbe, 0xf0, 0x84, 0xa2, 0xbe, 0xb6, 0x75, 0x62, 0x3a,
  0xf4, 0x76, 0xf0, 0xbe, 0x54, 0xcd, 0x0e, 0x3e, 0xf6, 0xae, 0xd1, 0x3c,
  0x65, 0xa3, 0x9c, 0x3e, 0xd0, 0xe4, 0x82, 0xbe, 0xeb, 0x2d, 0x96, 0xbc,
  0x61, 0xbb, 0x0c, 0x3b, 0xe6, 0x38, 0xca, 0x3d, 0xa5, 0x02, 0x01, 0x3e,
  0x74, 0x6f, 0xb6, 0x3d, 0x04, 0x52, 0x35, 0xbe, 0xed, 0x3d, 0xa0, 0xbc,
  0x4f, 0xac, 0xdd, 0x3d, 0xd7, 0x7a, 0x50, 0xbe, 0x4d, 0x38, 0x60, 0xbe,
  0x7c, 0xc4, 0xcd, 0x3b, 0x3f, 0x16, 0xf4, 0xbe, 0x1c, 0x8c, 0x29, 0x3d,
  0x4c, 0x27, 0x09, 0xbd, 0x1e, 0x3f, 0x96, 0x3d, 0x65, 0xc2, 0x0a, 0x3d,
  0x12, 0x9d, 0x0d, 0xbd, 0x3f, 0xdb, 0xb9, 0xbe, 0x0d, 0xcf, 0xdf, 0xbe,
  0x0c, 0x74, 0x8d, 0x3e, 0x2c, 0x65, 0x0c, 0x3e, 0x81, 0x54, 0x3d, 0xbe,
  0x01, 0x0a, 0xba, 0xbe, 0x44, 0x1f, 0x23, 0x40, 0xc9, 0xa2, 0x7e, 0xbe,
  0x01, 0xfe, 0xf2, 0x3e, 0x4d, 0x29, 0x1f, 0xbf, 0xb7, 0x48, 0xa4, 0xbe,
  0x00, 0x60, 0xa4, 0xbe, 0x91, 0x5d, 0x1e, 0xbe, 0x5f, 0x5c, 0x26, 0xbe,
  0xef, 0x01, 0x02, 0x40, 0x25, 0xcc, 0x2b, 0xbe, 0xfb, 0x52, 0x9f, 0x3d,
  0xd6, 0x6e, 0xad, 0xbe, 0x9b, 0x2c, 0x5a, 0x3e, 0x82, 0x06, 0x2e, 0x3e,
  0xf2, 0xa9, 0xe7, 0x3f, 0xa1, 0x33, 0x9d, 0xbe, 0xa4, 0x5a, 0x96, 0x3f,
  0xf5, 0x5b, 0x9a, 0xbd, 0xe6, 0x54, 0xf0, 0x3c, 0xaf, 0xb5, 0x3a, 0xbf,
  0x57, 0x28, 0xcd, 0xbe, 0x1c, 0x41, 0x1a, 0x3f, 0x1c, 0xe4, 0xd8, 0xbe,
  0x8d, 0x98, 0x24, 0x3f, 0x73, 0x97, 0x81, 0x3f, 0x89, 0x55, 0xe1, 0x3c,
  0xcf, 0xf1, 0xe4, 0x3e, 0x2b, 0x9d, 0x76, 0xbe, 0xb3, 0xee, 0xcd, 0xbe,
  0x2d, 0xcd, 0x62, 0x3e, 0xfb, 0xa4, 0x06, 0x3f, 0xa2, 0xf0, 0xb8, 0xbe,
  0x84, 0xe0, 0x62, 0x40, 0xb8, 0xf3, 0x8c, 0xbe, 0x07, 0xb5, 0xb6, 0x3e,
  0x8c, 0x72, 0x02, 0xbf, 0xa3, 0xb9, 0xe7, 0xbe, 0x93, 0xe8, 0x71, 0x3f,
  0x63, 0xae, 0x4a, 0xbe, 0x7a, 0x08, 0x7a, 0x3f, 0x73, 0x76, 0x86, 0xbe,
  0x2e, 0x73, 0x8f, 0xbd, 0x92, 0xcb, 0x16, 0xbe, 0x13, 0x02, 0xc8, 0xbe,
  0x35, 0x64, 0xfd, 0x3c, 0xb4, 0xbd, 0x81, 0x3e, 0xca, 0xce, 0x40, 0x3f,
  0x74, 0xc9, 0xb4, 0xbe, 0xaa, 0xeb, 0x65, 0x40, 0x41, 0x6b, 0x94, 0xbe,
  0xd0, 0x42, 0x1a, 0x3f, 0x0a, 0xea, 0x40, 0xbf, 0x66, 0x5b, 0x90, 0xbe,
  0x72, 0xb4, 0x05, 0x3f, 0x18, 0xac, 0xda, 0xbe, 0x9a, 0x2a, 0xc9, 0x3f,
  0x13, 0x63, 0x46, 0xbe, 0x59, 0x9f, 0xf4, 0xbd, 0xe4, 0x42, 0x5b, 0xbe,
  0xd3, 0xe8, 0x97, 0xbe, 0xf6, 0xb5, 0xb5, 0xbc, 0x8d, 0x66, 0x6b, 0x3e,
  0x64, 0xa8, 0x3e, 0xbc, 0x10, 0xe1, 0x5b, 0xbe, 0xd4, 0x62, 0x0a, 0x40,
  0x7b, 0x1f, 0xd1, 0xbd, 0x79, 0x83, 0x40, 0x3f, 0xa9, 0xff, 0x0f, 0xbf,
  0x47, 0x6e, 0x9c, 0xbe, 0x26, 0xeb, 0xe7, 0x3e, 0x1b, 0x84, 0x6a, 0xbe,
  0xe2, 0x78, 0x64, 0x3e, 0x8a, 0x9d, 0x23, 0x3e, 0xc3, 0x5a, 0x2c, 0xbe,
  0xa3, 0xda, 0xa0, 0x3a, 0x54, 0x2a, 0x9d, 0xbe, 0x87, 0x66, 0xdc, 0x3e,
  0x3e, 0x59, 0xef, 0x3c, 0x1e, 0xbc, 0xc3, 0xbc, 0x42, 0x71, 0x7e, 0xbe,
  0x14, 0xb2, 0xab, 0x40, 0x95, 0x96, 0x96, 0xbe, 0xdf, 0x78, 0x48, 0xbe,
  0x74, 0xca, 0x0f, 0xbf, 0x52, 0x6b, 0x4c, 0xbe, 0xe2, 0xc6, 0xe7, 0x3e,
  0xb6, 0xa9, 0x67, 0xbe, 0x87, 0x88, 0xce, 0x3e, 0xa4, 0xed, 0x8a, 0xbd,
  0x8e, 0x73, 0x15, 0xbe, 0x27, 0x1f, 0xaf, 0xbe, 0x34, 0xc0, 0x59, 0xbe,
  0xa7, 0xd7, 0xf8, 0xbe, 0x17, 0x60, 0xd8, 0x3c, 0xc8, 0xbc, 0x73, 0x3e,
  0x7b, 0x2b, 0x9d, 0xbe, 0x40, 0x43, 0xa2, 0x3f, 0xea, 0xb3, 0x81, 0xbe,
  0x80, 0xe3, 0x8d, 0x3e, 0xb3, 0x61, 0x02, 0xbf, 0xf4, 0x62, 0x60, 0xbe,
  0x01, 0xb7, 0xad, 0x3e, 0x9f, 0xac, 0xc1, 0xbe, 0xe6, 0x9c, 0x02, 0x3f,
  0x33, 0x2a, 0xf2, 0xbe, 0x0c, 0x48, 0x82, 0xbd, 0x04, 0x3a, 0x9c, 0xbe,
  0xef, 0xf0, 0x14, 0xbe, 0xd5, 0x8f, 0x0c, 0xbe, 0x10, 0xa2, 0x44, 0xbd,
  0xc9, 0xca, 0xa3, 0xbc, 0x32, 0x17, 0x81, 0xbd, 0xf2, 0xb5, 0x0b, 0x3e,
  0xf9, 0xe1, 0xb8, 0xbd, 0xc4, 0x94, 0x79, 0xbd, 0xe5, 0xad, 0x41, 0xbd,
  0x85, 0xf3, 0xd0, 0x3b, 0x8a, 0xae, 0x61, 0xbe, 0x34, 0xfa, 0xe1, 0xbc,
  0x45, 0x55, 0x8d, 0xbd, 0xc7, 0x04, 0x88, 0x3d, 0x10, 0xa9, 0x3d, 0x3e,
  0x6f, 0x9f, 0x4f, 0xbd, 0x8b, 0xd4, 0x04, 0xbe, 0x83, 0x2d, 0xb9, 0x3d,
  0xa8, 0x71, 0x83, 0x3d, 0x09, 0x50, 0xca, 0xba, 0x9a, 0xe6, 0x3f, 0xbe,
  0xb4, 0x07, 0xb6, 0x3d, 0x10, 0x7d, 0x25, 0xbe, 0x22, 0xf6, 0x7b, 0xbd,
  0xb0, 0xee, 0x12, 0xbd, 0x37, 0x47, 0x6c, 0x3b, 0x6c, 0x72, 0x29, 0x3b,
  0x22, 0x0f, 0x30, 0xbd, 0x4c, 0x0e, 0xaf, 0x3d, 0xef, 0x4f, 0x2b, 0x3d,
  0x9c, 0x57, 0x20, 0x3d, 0xba, 0x4b, 0x9b, 0xbd, 0xf6, 0x60, 0x7e, 0xbe,
  0x32, 0xdc, 0x36, 0xbe, 0x2d, 0xbf, 0xfe, 0xbd, 0xe7, 0x1a, 0x22, 0x3d,
  0xe0, 0xf0, 0x93, 0x3d, 0x7e, 0x01, 0x18, 0xbe, 0x15, 0x92, 0xa6, 0xbd,
  0x4f, 0xe0, 0xc7, 0xbd, 0x65, 0xd0, 0x96, 0x3c, 0x02, 0xcd, 0x26, 0xbd,
  0x53, 0xfe, 0x4d, 0x3d, 0x58, 0x4b, 0x87, 0xbd, 0xf0, 0xbe, 0x1a, 0xbe,
  0x9a, 0x62, 0xdb, 0xbd, 0x07, 0xc2, 0xfc, 0x3d, 0x4a, 0x5c, 0x80, 0xbb,
  0x53, 0xee, 0x93, 0xbd, 0xb1, 0x64, 0x5d, 0x3d, 0x06, 0xe9, 0x8a, 0x3d,
  0xe3, 0x49, 0xb2, 0x3d, 0x84, 0xa6, 0xf4, 0x3d, 0x3d, 0x54, 0x1d, 0xbe,
  0x95, 0x5d, 0x20, 0xbe, 0x61, 0xa2, 0xce, 0xbd, 0x97, 0xaa, 0x15, 0xbd,
  0x80, 0x57, 0x4f, 0x3d, 0x9c, 0xfa, 0x0c, 0x3e, 0xae, 0x18, 0x81, 0x3c,
  0xab, 0x8a, 0x8f, 0x3d, 0x55, 0x37, 0x88, 0xbe, 0x8e, 0x91, 0x0e, 0xbe,
  0x6e, 0xa2, 0x5e, 0xbe, 0xcb, 0x65, 0x24, 0xbe, 0x7f, 0x09, 0x88, 0xbd,
  0xf5, 0x91, 0xde, 0xba, 0x3e, 0xae, 0x78, 0xbe, 0xa2, 0x68, 0x2f, 0xbd,
  0x67, 0xa6, 0x07, 0x3d, 0xb9, 0x13, 0x17, 0xbe, 0x9c, 0xba, 0xd2, 0xbd,
  0x9a, 0xc1, 0x3e, 0x3c, 0x7d, 0x2b, 0xc5, 0xbc, 0xde, 0xfd, 0x26, 0xbe,
  0x39, 0x3e, 0x36, 0x3d, 0x3b, 0x3b, 0x7d, 0xbd, 0xfd, 0xff, 0x41, 0xbd,
  0xe8, 0x60, 0x1d, 0x3e, 0x05, 0xc3, 0x2d, 0xbe, 0xb0, 0x00, 0x9e, 0xbd,
  0x74, 0xdc, 0x1f, 0xbe, 0x79, 0xb5, 0x0b, 0xbe, 0x55, 0x8c, 0xae, 0x3d,
  0x05, 0xeb, 0x33, 0xbd, 0xee, 0x2f, 0x3f, 0xbe, 0xeb, 0xec, 0xc9, 0xbe,
  0xcd, 0x68, 0x94, 0xbe, 0x7d, 0xbf, 0xa3, 0x3b, 0xdc, 0x51, 0x26, 0xbc,
  0x66, 0x8f, 0x23, 0xbd, 0x00, 0xa6, 0xe7, 0xbc, 0x86, 0x16, 0xc9, 0x3c,
  0x6b, 0xfc, 0x47, 0x3d, 0xed, 0x01, 0xaa, 0x3d, 0xc3, 0xf3, 0x71, 0xbe,
  0x90, 0x22, 0x05, 0x3e, 0x1c, 0xcf, 0x14, 0xbd, 0xc9, 0xfb, 0xb4, 0x3d,
  0xd4, 0xe6, 0x81, 0x3e, 0x4d, 0xea, 0xa7, 0xbd, 0xb4, 0x8d, 0x17, 0x3e,
  0xb3, 0x7f, 0x51, 0x3e, 0xbd, 0x5d, 0x89, 0xbe, 0x44, 0x45, 0x89, 0xbe,
  0x14, 0xf3, 0x85, 0xbe, 0x27, 0x48, 0xad, 0xbd, 0xd9, 0x69, 0x81, 0x3d,
  0x10, 0x11, 0x1d, 0x3c, 0xed, 0x27, 0x95, 0x3c, 0xeb, 0x1e, 0x32, 0x3d,
  0x13, 0xf6, 0x11, 0xbc, 0x53, 0x20, 0x3d, 0x3e, 0xfb, 0x48, 0x26, 0xbe,
  0x02, 0xc4, 0xc9, 0x3d, 0x55, 0xb9, 0xd5, 0xbd, 0x26, 0x19, 0xfb, 0xbc,
  0x83, 0x4d, 0x19, 0xbf, 0x50, 0x47, 0x2c, 0x3d, 0xf5, 0x15, 0x30, 0xbc,
  0xa6, 0xb0, 0x28, 0x3d, 0xe0, 0xe6, 0x10, 0x3e, 0xcb, 0xef, 0x12, 0xbd,
  0xe6, 0x51, 0x82, 0xbe, 0x6c, 0x26, 0x2f, 0x3d, 0x5e, 0x82, 0x6f, 0xbe,
  0xa2, 0xa6, 0x01, 0x3e, 0x39, 0x29, 0x62, 0x3c, 0xc2, 0xd3, 0x95, 0x3e,
  0x16, 0x16, 0x17, 0xbe, 0x51, 0xa0, 0xbc, 0x3d, 0xd6, 0xc4, 0xf0, 0xbd,
  0x66, 0x12, 0x8b, 0xbd, 0x0a, 0x17, 0x95, 0x3e, 0x08, 0xa5, 0x36, 0x3d,
  0x3f, 0x97, 0x53, 0xbd, 0xb2, 0xd8, 0xa3, 0xbc, 0x95, 0x6b, 0x1e, 0x3d,
  0x48, 0x00, 0x13, 0x3e, 0x3a, 0xa9, 0x2e, 0xbe, 0xe2, 0x7e, 0x2c, 0x3c,
  0x48, 0x1a, 0xb8, 0x3c, 0x2c, 0x23, 0x0d, 0x3e, 0xc3, 0xcd, 0xe6, 0x3d,
  0xbc, 0x30, 0xb6, 0x3e, 0xe6, 0xd5, 0x7b, 0xbe, 0x1b, 0x9b, 0xa4, 0x3d,
  0x11, 0xdf, 0x52, 0x3e, 0x95, 0x1d, 0x08, 0x3e, 0x66, 0xb2, 0xc0, 0x3e,
  0xa8, 0xa3, 0x5b, 0xbe, 0x62, 0x14, 0xcd, 0xbd, 0x8a, 0x40, 0xe3, 0xbc,
  0x29, 0x26, 0x3c, 0xbd, 0x6b, 0xa2, 0x3b, 0xbc, 0x76, 0xde, 0xa8, 0xbd,
  0x17, 0xa7, 0x41, 0xbd, 0x05, 0x5a, 0xca, 0x3d, 0x12, 0x2a, 0x7b, 0xbb,
  0x3c, 0x4e, 0xbd, 0x3d, 0x79, 0x6c, 0x3b, 0x3e, 0x66, 0xc9, 0x01, 0xbf,
  0xe2, 0x08, 0x5f, 0x3d, 0x6b, 0x5a, 0x0a, 0x3e, 0x68, 0xcd, 0x38, 0xbe,
  0x3c, 0x27, 0x32, 0xbf, 0xa1, 0x58, 0xaa, 0xbe, 0xf9, 0xa2, 0xdc, 0x3c,
  0x0c, 0xf4, 0xde, 0xbd, 0x8f, 0xc8, 0x8a, 0xbd, 0x36, 0xf6, 0x10, 0x3e,
  0xc2, 0x18, 0x21, 0xbe, 0x70, 0x4c, 0x41, 0x3d, 0x52, 0x1f, 0x75, 0x3d,
  0x75, 0x92, 0x1d, 0x3d, 0xd7, 0xd9, 0x08, 0x3d, 0x29, 0x7f, 0x21, 0x3e,
  0xf8, 0x63, 0x19, 0xbe, 0x32, 0x9d, 0xec, 0x3d, 0xf2, 0x90, 0x06, 0xbc,
  0xd7, 0xdb, 0x2e, 0x3d, 0xf8, 0xcb, 0x0b, 0xbf, 0xd3, 0x4c, 0x3e, 0xbc,
  0x4f, 0x4d, 0x0c, 0xbd, 0xb1, 0x5f, 0x43, 0xbd, 0xcb, 0x02, 0x86, 0xbd,
  0xc8, 0x4c, 0xae, 0x3d, 0xa2, 0xfd, 0x05, 0x3d, 0x75, 0x4a, 0x16, 0xbc,
  0x2a, 0xda, 0x75, 0xbc, 0xf5, 0xf8, 0x37, 0x3d, 0x9d, 0x80, 0xd2, 0xbd,
  0x4a, 0xd5, 0x82, 0x3d, 0x75, 0x05, 0x4c, 0xbe, 0xf3, 0x99, 0x69, 0x3e,
  0xa3, 0x72, 0x9d, 0x3c, 0xa6, 0xa2, 0xd1, 0x3d, 0x6a, 0xcc, 0x4a, 0xbe,
  0x97, 0xfe, 0x88, 0x3d, 0xec, 0x73, 0xa3, 0xbd, 0x56, 0x4c, 0x49, 0x3d,
  0x1b, 0x88, 0x8a, 0x3d, 0x96, 0x6e, 0x9b, 0xbd, 0x02, 0x5d, 0x82, 0x3d,
  0x1f, 0x13, 0x54, 0xbd, 0xcf, 0x6b, 0x4b, 0x3b, 0xe4, 0x59, 0x0f, 0xbe,
  0x01, 0x94, 0x25, 0xbc, 0xde, 0x71, 0xa8, 0x3d, 0x54, 0xc2, 0x88, 0xbd,
  0x27, 0x4a, 0xb0, 0xbd, 0x20, 0x5b, 0xb2, 0x3d, 0xcc, 0x50, 0x47, 0xbc,
  0xa6, 0xa9, 0xbb, 0x3d, 0x84, 0x5e, 0x53, 0x3d, 0xf8, 0xc3, 0xf6, 0xbc,
  0xa3, 0xc2, 0x37, 0xbd, 0xf2, 0x67, 0xa9, 0x3d, 0x6e, 0xf1, 0x88, 0xbd,
  0x68, 0x68, 0xf9, 0xbb, 0x76, 0x03, 0x14, 0x3d, 0xf9, 0x61, 0x34, 0xbe,
  0x23, 0x3d, 0x26, 0x3c, 0x05, 0xe1, 0xda, 0x3d, 0x43, 0x31, 0x3d, 0xbe,
  0x70, 0x1f, 0xcd, 0x3c, 0xc8, 0xdc, 0x84, 0xbd, 0xcd, 0xb9, 0x32, 0xbe,
  0x9c, 0x70, 0x54, 0xbd, 0xfe, 0xd2, 0x14, 0xbe, 0x9c, 0xbb, 0x64, 0xbe,
  0xd9, 0xa3, 0x74, 0xbc, 0x9b, 0x03, 0xf2, 0xbd, 0x60, 0x79, 0x65, 0xbe,
  0x95, 0xaa, 0x00, 0x3e, 0x33, 0x4a, 0xdf, 0xbe, 0x86, 0xcf, 0x4a, 0x3e,
  0x24, 0x15, 0x4e, 0x3e, 0xb7, 0xee, 0xe6, 0x3d, 0x59, 0xf9, 0xb8, 0xbd,
  0xde, 0xc5, 0x19, 0xbe, 0x88, 0xfa, 0xdd, 0x3d, 0xf3, 0xff, 0x39, 0x3e,
  0xd3, 0x80, 0x44, 0xbe, 0x9e, 0x54, 0x04, 0x3c, 0x3d, 0x19, 0x9d, 0xbe,
  0x61, 0x93, 0x5c, 0xbc, 0xf7, 0x2f, 0x76, 0xbe, 0x26, 0xe1, 0xe1, 0xbd,
  0x2a, 0x2b, 0x5a, 0xbe, 0xd6, 0xdd, 0xbc, 0x3d, 0x6b, 0x41, 0x61, 0xbe,
  0xb2, 0x81, 0x14, 0x3e, 0xc8, 0x4d, 0xa3, 0x3d, 0x6e, 0x1c, 0xaf, 0x3d,
  0x19, 0xd5, 0xc9, 0x3e, 0x9a, 0x3d, 0x04, 0x3e, 0x5c, 0x03, 0xee, 0x3d,
  0xd1, 0x46, 0xc3, 0xbd, 0x70, 0x47, 0x65, 0x3e, 0x97, 0x02, 0x45, 0x3d,
  0x6a, 0x48, 0x00, 0xbe, 0xcf, 0x67, 0x1e, 0x3e, 0xa7, 0x6b, 0x61, 0xbe,
  0x45, 0xbc, 0x70, 0xbd, 0xbe, 0x23, 0xbd, 0xbd, 0x9c, 0xde, 0xb0, 0xbd,
  0x3d, 0x36, 0x7a, 0xbe, 0x68, 0xdb, 0x21, 0x3e, 0xe3, 0xc3, 0xec, 0xbb,
  0x7b, 0x50, 0x01, 0xbe, 0xb2, 0xea, 0x34, 0xbd, 0xca, 0x3e, 0x03, 0xbd,
  0x86, 0xf5, 0xe3, 0x3d, 0x2e, 0xe3, 0x1e, 0xbe, 0x06, 0x71, 0x88, 0x3d,
  0x88, 0xb5, 0xb5, 0xbd, 0x02, 0x23, 0x45, 0xbd, 0xe7, 0x40, 0x11, 0x3e,
  0x40, 0x87, 0x90, 0xbd, 0x6b, 0x75, 0xd8, 0xbe, 0x9b, 0xb9, 0xaf, 0x3c,
  0x51, 0xc3, 0xe3, 0x3c, 0x59, 0x3a, 0xa6, 0xbe, 0x1a, 0x21, 0x2d, 0x3d,
  0x8a, 0xc0, 0x48, 0x3e, 0x9f, 0x0e, 0xd1, 0x3d, 0xbc, 0xd1, 0xbc, 0x3d,
  0x44, 0xbb, 0x97, 0xbb, 0x48, 0x33, 0xa6, 0x3d, 0xe5, 0xb5, 0x59, 0xbe,
  0xb9, 0x48, 0x07, 0xbd, 0x2f, 0x4e, 0x4e, 0x3e, 0xc6, 0x57, 0x7b, 0xbe,
  0xaa, 0xa2, 0x0c, 0xbe, 0x84, 0xd9, 0xa5, 0xbe, 0x16, 0x12, 0xb6, 0xbd,
  0xac, 0xbb, 0xda, 0xbd, 0x03, 0x94, 0x81, 0x3e, 0xb1, 0xb3, 0x9b, 0xbd,
  0xae, 0x07, 0xd6, 0x3e, 0x20, 0xc3, 0x21, 0xbe, 0xb2, 0x17, 0x1f, 0x3e,
  0x71, 0xb8, 0x97, 0x3c, 0x24, 0xff, 0x24, 0xbe, 0xe7, 0x98, 0xec, 0x3d,
  0xd7, 0xed, 0x30, 0x3e, 0x44, 0x35, 0xc2, 0xbd, 0xd5, 0x9a, 0xa5, 0x3d,
  0x1f, 0x42, 0x9b, 0xbe, 0xd2, 0x14, 0x68, 0xbe, 0xd8, 0xe1, 0x9e, 0xbe,
  0x27, 0x72, 0x66, 0xbe, 0x4f, 0x73, 0x42, 0xbe, 0xab, 0x44, 0xda, 0xbd,
  0xa5, 0x60, 0x70, 0xbe, 0x74, 0xa5, 0xa0, 0x3b, 0x37, 0x9c, 0xc0, 0xbc,
  0xf9, 0x05, 0x99, 0xbd, 0x84, 0x30, 0x4e, 0x3d, 0x8b, 0xef, 0xac, 0xbd,
  0xf5, 0x70, 0x04, 0x3e, 0xfa, 0xa0, 0x1f, 0x3e, 0x4c, 0xef, 0x14, 0xbd,
  0x7e, 0xdc, 0x37, 0xbe, 0x88, 0x9b, 0xa4, 0xbb, 0xe2, 0x89, 0xff, 0xbc,
  0x45, 0xf9, 0xd3, 0xbc, 0xfe, 0x3e, 0x29, 0xbe, 0xbc, 0x78, 0x16, 0xbd,
  0x7c, 0x7d, 0x25, 0x3e, 0xb3, 0x47, 0xee, 0xbd, 0x04, 0x2c, 0x6f, 0xbd,
  0x6b, 0x48, 0xc4, 0x3d, 0xf2, 0xa7, 0xb8, 0xbd, 0x13, 0x0a, 0x3b, 0xbe,
  0x12, 0xba, 0xd7, 0x3d, 0x59, 0xe9, 0x82, 0xbe, 0x5f, 0x3a, 0x08, 0x3e,
  0x8f, 0xd6, 0x17, 0xbe, 0xfa, 0xe8, 0x2c, 0xbe, 0x33, 0xaf, 0x40, 0xbd,
  0x2f, 0x34, 0x66, 0xbe, 0x71, 0xee, 0x14, 0x3e, 0xd4, 0x48, 0x98, 0xbe,
  0x54, 0x06, 0xa2, 0xbe, 0xa6, 0x57, 0x87, 0xbe, 0x51, 0xc8, 0x13, 0xbe,
  0x09, 0x23, 0xa8, 0xbd, 0x69, 0x1f, 0x9e, 0xbd, 0x22, 0x76, 0x02, 0xbe,
  0xd6, 0x22, 0xca, 0x3c, 0xb7, 0x52, 0xdd, 0x3b, 0xa1, 0x69, 0x09, 0xbd,
  0x0e, 0x33, 0xa8, 0xbd, 0x85, 0x3e, 0x8e, 0xbd, 0x25, 0x9f, 0x0e, 0xbe,
  0xaa, 0xb5, 0x89, 0xbc, 0x6e, 0x6f, 0xf2, 0xbd, 0x14, 0xf6, 0x42, 0xbe,
  0xb0, 0x4f, 0x01, 0xbe, 0x95, 0x32, 0x1f, 0xbe, 0x31, 0x2e, 0x70, 0xbd,
  0x46, 0x0b, 0x01, 0x3e, 0x4e, 0x35, 0x53, 0xbe, 0x57, 0x9b, 0xa4, 0xbd,
  0x5e, 0x7d, 0xe2, 0xbb, 0x60, 0x2d, 0xa4, 0x3d, 0x3c, 0x4e, 0x33, 0x3d,
  0x19, 0x92, 0x6c, 0xbe, 0x67, 0x28, 0x3d, 0xbe, 0x6b, 0x39, 0xf4, 0x3d,
  0xc0, 0xe4, 0x95, 0xbe, 0xf7, 0xfd, 0x70, 0xbe, 0x91, 0x7b, 0x80, 0xbe,
  0xa1, 0x06, 0x7a, 0xbe, 0x56, 0x2b, 0x5c, 0xbe, 0x11, 0x8b, 0x8b, 0xbe,
  0x9e, 0xee, 0x8c, 0xbd, 0x56, 0x1b, 0x44, 0xbe, 0xdf, 0x53, 0x9a, 0xbd,
  0x71, 0xfe, 0xae, 0xbc, 0xe2, 0x77, 0x1f, 0x3d, 0xd9, 0x09, 0x26, 0xbe,
  0x94, 0x61, 0x9e, 0x3d, 0x45, 0x9b, 0x59, 0xbe, 0x73, 0x12, 0x51, 0x3e,
  0x80, 0x0f, 0x72, 0xbe, 0x39, 0xfb, 0x1c, 0xbd, 0xba, 0x29, 0xf3, 0xbc,
  0x8b, 0x60, 0xcf, 0xbd, 0x72, 0x8a, 0x79, 0xbd, 0x5d, 0xc4, 0xb0, 0xbe,
  0x8c, 0x53, 0x11, 0xbe, 0x4b, 0x4f, 0xe1, 0x3d, 0x46, 0xc0, 0xad, 0x3d,
  0x99, 0x5c, 0x68, 0xbd, 0xe3, 0x54, 0xdd, 0xbd, 0x99, 0x0b, 0x43, 0xbe,
  0x17, 0xf4, 0x6d, 0x3d, 0x1e, 0x1a, 0x24, 0xbe, 0x84, 0x16, 0xaf, 0xbd,
  0x48, 0xa4, 0x83, 0xbc, 0x9e, 0xc8, 0x2a, 0xbe, 0x70, 0xb2, 0x84, 0xbe,
  0x03, 0x2c, 0x68, 0xbe, 0x08, 0x38, 0x04, 0xbe, 0x13, 0x24, 0x82, 0xbd,
  0xdb, 0x2a, 0x61, 0xbe, 0x5f, 0xac, 0xe4, 0xbd, 0xb5, 0x22, 0x77, 0xbd,
  0x91, 0x1c, 0x20, 0xbe, 0x0d, 0x37, 0x13, 0xbe, 0x01, 0x03, 0x13, 0xbe,
  0x4f, 0xc9, 0x7e, 0x3d, 0x8a, 0xaa, 0xab, 0xbd, 0xe0, 0xd8, 0xe9, 0x3c,
  0x17, 0xc7, 0xe1, 0xbc, 0xb9, 0x64, 0xce, 0xbd, 0x54, 0xb0, 0xde, 0xbd,
  0xba, 0x5d, 0x2e, 0xbe, 0xd2, 0x32, 0xd7, 0x3d, 0x3f, 0x2a, 0xef, 0xbd,
  0xe5, 0xcf, 0x3c, 0xbe, 0xf9, 0xe3, 0x8c, 0xbe, 0x18, 0x6f, 0xa3, 0xbd,
  0xc1, 0xb3, 0x14, 0xbe, 0x52, 0x1e, 0xbc, 0xbd, 0xdf, 0x34, 0x4b, 0xbe,
  0x5c, 0xf4, 0x4c, 0xbe, 0xb9, 0x52, 0xcf, 0xbd, 0x82, 0x8d, 0x02, 0x3d,
  0xf0, 0x9d, 0x23, 0x3c, 0x23, 0x64, 0x0c, 0xbd, 0x72, 0xa5, 0xb2, 0x3d,
  0x77, 0x5d, 0x24, 0xbe, 0xc1, 0xc7, 0x8d, 0xbd, 0xfe, 0xbb, 0x74, 0xbe,
  0x7a, 0xf0, 0x92, 0xbd, 0xb3, 0x6c, 0xd1, 0xbd, 0x99, 0xb6, 0x6b, 0xbe,
  0x01, 0x27, 0x54, 0x3d, 0xe6, 0xf7, 0xe6, 0xbd, 0x67, 0xa9, 0x8c, 0xbd,
  0x8e, 0xe7, 0xef, 0xbd, 0xbb, 0x65, 0x82, 0xbe, 0xb4, 0x30, 0xf6, 0xbc,
  0xcb, 0x0b, 0x6b, 0xbe, 0x6e, 0x17, 0x4c, 0xbe, 0x36, 0x61, 0x46, 0x3e,
  0xfd, 0x54, 0x13, 0xbe, 0x45, 0xe8, 0xa3, 0xbd, 0x97, 0xc8, 0xf1, 0xbe,
  0xa4, 0x96, 0x36, 0x3f, 0xf1, 0x92, 0x80, 0xba, 0x18, 0xb3, 0x61, 0x3e,
  0xf6, 0xda, 0x12, 0xbe, 0xa8, 0x61, 0x0a, 0x3c, 0x57, 0x42, 0xdb, 0x3b,
  0x94, 0x88, 0xfa, 0x3c, 0x74, 0x86, 0xbf, 0xbe, 0x68, 0x59, 0xa3, 0x3e,
  0xc7, 0x73, 0x0b, 0x3e, 0xfe, 0x2a, 0x93, 0xbe, 0x2c, 0x7a, 0x62, 0xbe,
  0x76, 0x5d, 0x8b, 0x3e, 0xf9, 0x4d, 0x78, 0x3e, 0xf0, 0x69, 0xac, 0xbe,
  0xf7, 0x49, 0x9f, 0xbe, 0x50, 0x66, 0x48, 0x3f, 0x69, 0xfb, 0x89, 0xbd,
  0x75, 0xe7, 0xe0, 0x3d, 0xf7, 0x98, 0x66, 0xbe, 0xe5, 0x1d, 0x38, 0x3d,
  0x6d, 0x7f, 0x8c, 0x3d, 0x4e, 0x11, 0xc7, 0xbc, 0x55, 0xf7, 0xc3, 0x3e,
  0x16, 0xb7, 0xdb, 0x3e, 0xa3, 0x2c, 0x83, 0xbc, 0xb6, 0x6b, 0xa0, 0xbe,
  0x8e, 0xa3, 0x54, 0xbe, 0x87, 0x40, 0xac, 0x3e, 0x18, 0x43, 0x55, 0xbe,
  0x59, 0x3f, 0x66, 0xbe, 0x08, 0x46, 0x11, 0xbe, 0xa4, 0x0d, 0x9f, 0x3c,
  0xd7, 0xcd, 0x3c, 0x3e, 0x86, 0x5f, 0xef, 0x3e, 0x11, 0xde, 0xde, 0xbd,
  0x4c, 0xd5, 0x06, 0xbf, 0xe9, 0x3e, 0xdd, 0x3d, 0xc8, 0x39, 0xfe, 0x3d,
  0x4d, 0x9f, 0x48, 0x3e, 0x82, 0xeb, 0x6f, 0x3e, 0x3c, 0x49, 0x6b, 0xbe,
  0xa0, 0xc5, 0x8a, 0xbe, 0x1d, 0x7b, 0x7c, 0xbd, 0xb2, 0x38, 0xcc, 0x3e,
  0xc0, 0x15, 0x1d, 0x3e, 0x40, 0xf9, 0xcf, 0xbe, 0x96, 0x53, 0x5a, 0x3d,
  0x3c, 0x05, 0xe8, 0x3d, 0x9b, 0x88, 0x91, 0x3d, 0x52, 0xf2, 0x14, 0x3e,
  0x3b, 0x24, 0x4e, 0x3d, 0x9f, 0xe4, 0x66, 0xbd, 0x85, 0xd2, 0x8d, 0x3e,
  0xeb, 0x2f, 0x45, 0x3e, 0x0a, 0x50, 0x1e, 0x3e, 0x45, 0x19, 0xa5, 0xbd,
  0xe2, 0x45, 0xea, 0x3d, 0x7b, 0x74, 0xa4, 0xbd, 0x06, 0xf6, 0xfb, 0x3b,
  0xa3, 0x60, 0x21, 0x3f, 0xe4, 0x2b, 0xa5, 0x39, 0x69, 0x63, 0x96, 0xbd,
  0x1c, 0x0b, 0x48, 0xbe, 0x48, 0xe0, 0x3d, 0x3f, 0x3f, 0x5f, 0x13, 0x3e,
  0x4e, 0x48, 0x21, 0x3e, 0x9e, 0x5c, 0x30, 0xbd, 0xbf, 0xe2, 0xf1, 0xbc,
  0x81, 0xbe, 0xbb, 0x3e, 0x0a, 0x79, 0x52, 0xbe, 0x13, 0x9d, 0x8b, 0x3e,
  0x46, 0x97, 0x41, 0x3f, 0x38, 0x8b, 0xa8, 0xbd, 0x80, 0x4f, 0xe1, 0xbc,
  0x5d, 0x6a, 0x23, 0xbe, 0xe5, 0x1f, 0xad, 0x3c, 0x86, 0xb0, 0x8b, 0x3c,
  0x35, 0xc5, 0xfd, 0xbc, 0x43, 0x36, 0xa1, 0x3d, 0xc7, 0xc0, 0x68, 0x3f,
  0x37, 0x33, 0x61, 0xbd, 0x3e, 0x64, 0x1a, 0xbe, 0xf5, 0x8d, 0x80, 0xbd,
  0xf8, 0xa3, 0xe1, 0x3c, 0x7d, 0x9d, 0x8b, 0x3e, 0xb0, 0x99, 0x28, 0xbb,
  0x6c, 0x0c, 0x7e, 0x3d, 0xb0, 0xe7, 0xda, 0x3e, 0x37, 0xa8, 0xbb, 0x3d,
  0xc9, 0x30, 0xcc, 0xbd, 0x72, 0x66, 0x62, 0xbe, 0x0c, 0x95, 0x1f, 0x3d,
  0xd7, 0xe0, 0xa2, 0x3e, 0xe0, 0x53, 0x8c, 0xbb, 0xc1, 0xdd, 0xbc, 0xbd,
  0x40, 0xda, 0x23, 0x3e, 0x65, 0xd6, 0xb3, 0xbd, 0x1d, 0xa1, 0x01, 0x3e,
  0x4b, 0xb9, 0x7d, 0xbd, 0x46, 0x15, 0x26, 0x3d, 0x7f, 0xe5, 0x56, 0x3b,
  0xaa, 0x44, 0x76, 0xbd, 0x9d, 0xfc, 0x8d, 0x3c, 0xb6, 0xdd, 0xbd, 0x3c,
  0xf5, 0x34, 0x25, 0x3e, 0x20, 0x4e, 0x3e, 0xbd, 0x10, 0xdf, 0x4b, 0x3d,
  0xc3, 0x39, 0x92, 0xbe, 0x7c, 0x4f, 0x8a, 0x3e, 0xeb, 0xbc, 0xa8, 0xbd,
  0x00, 0x85, 0xda, 0xbd, 0x06, 0xdb, 0x9e, 0xbe, 0xa6, 0x8e, 0xd8, 0xbe,
  0x90, 0x29, 0x30, 0xbd, 0xc6, 0xac, 0x6a, 0xbe, 0xb1, 0xa8, 0x18, 0xbe,
  0x04, 0xa8, 0x78, 0x3e, 0x1d, 0x28, 0xdd, 0xbd, 0x4e, 0x6b, 0xcd, 0x3d,
  0xdd, 0x16, 0xad, 0x3e, 0x12, 0x3c, 0x85, 0x3e, 0x64, 0xde, 0x5e, 0x3d,
  0x5f, 0x91, 0x67, 0xbe, 0xe8, 0x12, 0x95, 0x3d, 0x43, 0x21, 0x24, 0x3e,
  0xd3, 0xd2, 0x31, 0x3e, 0x18, 0xf9, 0x70, 0x3d, 0x4a, 0x2e, 0xd3, 0xbe,
  0x16, 0x71, 0xe1, 0xbe, 0x3e, 0xda, 0x29, 0xbd, 0xba, 0x51, 0x45, 0xbe,
  0xcb, 0x8e, 0xc9, 0xbd, 0xce, 0x53, 0x90, 0x3e, 0xfb, 0x31, 0x82, 0xbe,
  0x49, 0xe5, 0x3e, 0x3e, 0x56, 0x4f, 0x57, 0x3e, 0x69, 0x22, 0xdc, 0xbc,
  0x30, 0x85, 0xbf, 0x3d, 0x06, 0x10, 0x37, 0xbd, 0x93, 0x16, 0x9a, 0xbe,
  0x7a, 0xa0, 0xa0, 0x3b, 0xdb, 0x9c, 0x45, 0x3d, 0x3c, 0x4e, 0x1f, 0xbc,
  0xe5, 0x5f, 0xd7, 0xbe, 0x1f, 0x27, 0x10, 0xbe, 0x61, 0x3e, 0x57, 0x3e,
  0xb9, 0x82, 0x53, 0xbe, 0x30, 0xc5, 0x99, 0xbc, 0xe7, 0x15, 0x71, 0x3e,
  0x27, 0x00, 0xa0, 0xbe, 0xb6, 0x77, 0xe1, 0x3d, 0x9e, 0x00, 0x2b, 0x3e,
  0xcc, 0xc5, 0x38, 0x3e, 0x38, 0xf5, 0x83, 0x3d, 0xb0, 0x8a, 0x01, 0x3e,
  0x7e, 0x79, 0x3d, 0x3d, 0x3a, 0x2e, 0xc9, 0xbd, 0xef, 0x1a, 0x42, 0x3e,
  0xb8, 0x05, 0x24, 0x3e, 0x5d, 0x21, 0x2f, 0xbf, 0xbf, 0x3f, 0x52, 0xbc,
  0x10, 0x92, 0x97, 0x3e, 0xd9, 0xef, 0x1d, 0xbe, 0x80, 0xfb, 0xb3, 0xbd,
  0x00, 0xa8, 0x73, 0x3e, 0x49, 0x2f, 0xb6, 0xbe, 0x6c, 0xef, 0x26, 0x3e,
  0xf8, 0xe5, 0x6d, 0x3d, 0x2c, 0x45, 0x63, 0xbd, 0x72, 0xec, 0x92, 0x3d,
  0x8f, 0x42, 0x7c, 0x3e, 0x9f, 0xac, 0xb1, 0x3d, 0x51, 0xfd, 0x89, 0xbd,
  0x68, 0x3c, 0x08, 0xbd, 0xac, 0x91, 0x8e, 0x3e, 0x71, 0x9c, 0x57, 0xbf,
  0x73, 0xf9, 0xd6, 0x3d, 0xac, 0xc8, 0x50, 0x3d, 0x82, 0x30, 0xad, 0x3c,
  0x27, 0x2a, 0x61, 0x3c, 0x97, 0x32, 0x8e, 0x3e, 0x0f, 0x36, 0x84, 0xbe,
  0xf5, 0x4e, 0x67, 0x3d, 0x24, 0xb7, 0x76, 0xbd, 0x63, 0x53, 0x18, 0x3e,
  0x51, 0x5c, 0xd6, 0xbd, 0x14, 0x8c, 0xc6, 0x3d, 0xeb, 0xbe, 0x1a, 0xbe,
  0xad, 0x58, 0x42, 0x3e, 0x34, 0x2f, 0x00, 0xbe, 0xc3, 0xd2, 0x23, 0xbd,
  0x3e, 0x47, 0x83, 0xbe, 0x8f, 0xb8, 0x2f, 0x3d, 0xdb, 0x74, 0x81, 0xbc,
  0x02, 0x8f, 0x1b, 0x3e, 0x62, 0xde, 0x77, 0x3e, 0x59, 0xa3, 0xb2, 0x3d,
  0x2b, 0x47, 0x8e, 0xbd, 0xe2, 0x9e, 0x0a, 0xbf, 0x90, 0x78, 0x40, 0xbe,
  0x88, 0xfa, 0x8c, 0x3c, 0xbe, 0xc2, 0x1d, 0xbb, 0xc4, 0x65, 0x20, 0x3e,
  0x1c, 0x8e, 0xa9, 0xbe, 0x86, 0x22, 0x10, 0x3d, 0x28, 0x1a, 0x92, 0xbd,
  0x5c, 0x67, 0x91, 0xbd, 0xc3, 0x61, 0xa0, 0x3e, 0xcb, 0x83, 0x44, 0x3d,
  0x51, 0x4d, 0x30, 0x3d, 0x5f, 0xb5, 0x3e, 0x3c, 0xf6, 0x11, 0x5b, 0x3e,
  0x7b, 0xc1, 0x6d, 0xbe, 0x8a, 0xfc, 0x9e, 0xbd, 0x6d, 0xb6, 0x37, 0xbe,
  0xdb, 0x40, 0xb0, 0xbe, 0xf4, 0xc9, 0xea, 0x3d, 0xc1, 0xfc, 0xde, 0xbd,
  0xdc, 0x86, 0xcc, 0xbb, 0x2e, 0x17, 0x1e, 0xbe, 0x07, 0x19, 0xf3, 0xbd,
  0x9d, 0x4d, 0x43, 0xbd, 0x64, 0x70, 0x5a, 0x3e, 0xb7, 0xd8, 0xda, 0xbe,
  0xcb, 0x23, 0x53, 0x3d, 0x69, 0x54, 0x2d, 0xbd, 0xce, 0xe7, 0xba, 0x3d,
  0xa5, 0xf5, 0x2f, 0xbd, 0xca, 0x10, 0xd1, 0xbe, 0x67, 0x58, 0x90, 0xbd,
  0xab, 0x13, 0xbe, 0xbd, 0x21, 0x30, 0xb3, 0xbe, 0xfd, 0xe4, 0x07, 0xbe,
  0x51, 0xc1, 0x3d, 0xbf, 0xfe, 0x07, 0x55, 0x3d, 0x34, 0xe7, 0x52, 0xbe,
  0x17, 0x0a, 0x52, 0x3d, 0x9e, 0x2f, 0x2b, 0xbe, 0x6e, 0xa3, 0x85, 0x3d,
  0xd9, 0x22, 0x37, 0x3e, 0x86, 0x65, 0x93, 0x3d, 0xca, 0xb7, 0x40, 0xbd,
  0x31, 0xed, 0xf9, 0x3b, 0xef, 0x28, 0xaa, 0x3c, 0x62, 0x52, 0xb3, 0xbd,
  0x5d, 0xd0, 0x2d, 0xbd, 0xb8, 0x4e, 0xa7, 0xbd, 0x32, 0x03, 0xac, 0xbe,
  0x90, 0x16, 0xa5, 0x3d, 0x78, 0x72, 0x8a, 0xbe, 0x1d, 0x29, 0x2b, 0x3d,
  0x29, 0x8f, 0x53, 0xbd, 0x19, 0xfe, 0x14, 0xbe, 0x69, 0x79, 0xb0, 0xbb,
  0x41, 0x65, 0xaf, 0xbc, 0x2d, 0x4a, 0x18, 0x3e, 0xd0, 0x2c, 0x42, 0xbd,
  0x7c, 0x2f, 0x0b, 0x3c, 0x21, 0xd7, 0xf7, 0x3b, 0xc7, 0xe3, 0xbd, 0x3c,
  0xad, 0x83, 0x89, 0x3d, 0xbe, 0xcf, 0x9e, 0xbc, 0xc0, 0xe5, 0xff, 0x3b,
  0x93, 0x9c, 0x88, 0xbe, 0x66, 0xd2, 0x20, 0x3e, 0x69, 0xb5, 0x40, 0xbf,
  0x6b, 0x22, 0x56, 0x3d, 0x6c, 0x1e, 0xe0, 0xbd, 0x49, 0x42, 0x11, 0xbe,
  0x51, 0xf3, 0x24, 0x3d, 0x3c, 0x84, 0xc4, 0xbd, 0xf0, 0x2e, 0xde, 0x3d,
  0xe7, 0xd6, 0x92, 0xbc, 0x15, 0xb9, 0xde, 0x3b, 0xcf, 0xd4, 0x4a, 0xbc,
  0xd5, 0x7d, 0xaa, 0x3c, 0x26, 0x1f, 0xa0, 0xbd, 0x5f, 0xbe, 0x98, 0xb9,
  0xab, 0xc1, 0x1b, 0xbe, 0x0b, 0x5a, 0x07, 0xbd, 0x31, 0x66, 0x97, 0x3d,
  0xa7, 0x9f, 0x10, 0xbd, 0x98, 0x66, 0xad, 0x3c, 0x80, 0x22, 0x31, 0xbe,
  0x22, 0x20, 0x66, 0xbd, 0xfb, 0xe7, 0x55, 0x3e, 0xe0, 0x7e, 0x07, 0xbe,
  0x89, 0x70, 0x2f, 0xbd, 0xfe, 0x42, 0xb1, 0xbd, 0xc7, 0x6c, 0x08, 0xbe,
  0x71, 0xa5, 0xe1, 0xbc, 0xed, 0x5b, 0xa7, 0xbc, 0x62, 0x3a, 0xa7, 0xbc,
  0xf4, 0xf5, 0xa1, 0x3d, 0x56, 0xe6, 0x47, 0x3d, 0x55, 0xaa, 0x44, 0xbe,
  0x69, 0x71, 0x77, 0x3e, 0xcd, 0x4e, 0xc2, 0x3c, 0xa6, 0x3c, 0xb9, 0xbc,
  0x82, 0x64, 0x68, 0xbd, 0x30, 0x40, 0x13, 0xbe, 0xa3, 0x31, 0x84, 0x3e,
  0x39, 0x09, 0x42, 0x3d, 0x58, 0x06, 0xed, 0x3d, 0xd0, 0x98, 0xba, 0x3c,
  0x0d, 0x66, 0xbe, 0xbc, 0xeb, 0xcd, 0x33, 0xbc, 0x72, 0x29, 0xe6, 0x3c,
  0x68, 0x49, 0x9d, 0xbc, 0x9d, 0x59, 0xb5, 0x3c, 0xe6, 0xcf, 0x02, 0xbe,
  0x7d, 0x0d, 0x99, 0xbe, 0x4b, 0xf3, 0xf0, 0xbb, 0x89, 0xc1, 0x72, 0xbe,
  0x78, 0x17, 0xa0, 0x3d, 0x91, 0x44, 0xe7, 0xbd, 0x2b, 0x5c, 0x1a, 0x3e,
  0x7c, 0x22, 0xf4, 0xbe, 0x4d, 0xe9, 0x12, 0x3e, 0x45, 0x10, 0x39, 0xbf,
  0xb8, 0xf5, 0xc5, 0x3d, 0xb7, 0x3a, 0xd6, 0xbd, 0x2a, 0x4b, 0xa9, 0x3d,
  0x71, 0x63, 0x98, 0xbd, 0x0e, 0x0b, 0x0a, 0xbe, 0x07, 0x93, 0x9e, 0xbc,
  0xa6, 0xc3, 0xb8, 0x3a, 0xab, 0xc3, 0x9f, 0xbd, 0xb3, 0xb8, 0xee, 0x3d,
  0x75, 0xb4, 0x75, 0xbe, 0xbe, 0x6c, 0x11, 0x3e, 0xd4, 0xf9, 0x90, 0xbd,
  0x65, 0xa9, 0x2c, 0xbe, 0xdc, 0xdf, 0x1c, 0xbe, 0x9f, 0x68, 0xc1, 0x3d,
  0xed, 0xb6, 0xd8, 0x3c, 0x7b, 0x2d, 0x1f, 0xbe, 0xb5, 0x35, 0x5e, 0xbe,
  0x87, 0x8f, 0x9e, 0xbe, 0xa3, 0xe4, 0xb9, 0xbe, 0xab, 0xbf, 0xda, 0xbd,
  0x7a, 0x6b, 0x9b, 0xbd, 0x5d, 0xeb, 0x9a, 0xbe, 0x28, 0xb4, 0x11, 0x3d,
  0xa4, 0x72, 0xed, 0x3d, 0xc8, 0xc0, 0xa5, 0x3a, 0x46, 0x5b, 0x0b, 0xbe,
  0x73, 0x89, 0x35, 0xbe, 0xc8, 0xd5, 0x5d, 0xbd, 0x07, 0x2d, 0xf7, 0xbd,
  0x15, 0x6d, 0x9d, 0x3c, 0x2d, 0x8b, 0xf4, 0x3d, 0xb6, 0x4d, 0xb5, 0xbd,
  0x99, 0xf6, 0x9b, 0x3d, 0x0f, 0xea, 0x64, 0xbe, 0x03, 0x9d, 0xfd, 0xbd,
  0x67, 0x56, 0x3d, 0x3d, 0x43, 0x78, 0x06, 0xbd, 0x6a, 0x15, 0x82, 0x3d,
  0xdf, 0xdc, 0x3c, 0xbd, 0x84, 0x13, 0x17, 0x3d, 0xdb, 0x4f, 0xc4, 0xbd,
  0x09, 0x46, 0x2a, 0xbd, 0x69, 0xbf, 0xc1, 0xbd, 0x14, 0x4e, 0xb6, 0xbd,
  0x8f, 0x9d, 0x4a, 0xbe, 0xdc, 0x30, 0xd8, 0xbd, 0x7c, 0x64, 0x15, 0xbd,
  0x77, 0x7d, 0x5c, 0xbe, 0x81, 0x77, 0x13, 0x3c, 0x0f, 0xee, 0x72, 0xbe,
  0x64, 0x1f, 0xce, 0xbd, 0x41, 0x9a, 0x10, 0xbd, 0x44, 0xe7, 0xf7, 0xbd,
  0x7b, 0xe2, 0x14, 0x3e, 0x3c, 0x70, 0x22, 0x3e, 0xce, 0xa0, 0x16, 0x3e,
  0xd5, 0x2e, 0x30, 0x3c, 0x38, 0xce, 0xa1, 0x3d, 0xb1, 0xf1, 0x0b, 0xbe,
  0x0e, 0x03, 0xbd, 0x3d, 0x34, 0xa9, 0xd5, 0x3d, 0xd4, 0x94, 0x0c, 0xbe,
  0xda, 0xa0, 0x79, 0xbd, 0x4c, 0x57, 0x2e, 0xbe, 0xb4, 0x22, 0x5c, 0xbc,
  0xcc, 0xda, 0xbe, 0xbd, 0xdb, 0xe5, 0x24, 0xbe, 0x67, 0x15, 0x5c, 0xbe,
  0x3a, 0xad, 0x5b, 0xbe, 0xa6, 0xb6, 0xeb, 0x3d, 0x72, 0x04, 0x59, 0x3e,
  0x35, 0x29, 0x57, 0xbe, 0x97, 0x3c, 0x24, 0xbe, 0x29, 0x3e, 0x42, 0xbe,
  0x43, 0xb7, 0x24, 0xbe, 0x6e, 0x1f, 0xd6, 0x3d, 0x11, 0xa7, 0x88, 0x3d,
  0x91, 0xd1, 0x1c, 0x3c, 0xde, 0x1c, 0xe8, 0xbd, 0x90, 0x4a, 0x2b, 0xbd,
  0xd0, 0x2a, 0x93, 0x3d, 0x85, 0xfc, 0xf7, 0xbb, 0x60, 0xa4, 0x9c, 0x3c,
  0x3c, 0x26, 0x48, 0xbd, 0x13, 0xf6, 0x09, 0x3e, 0xd3, 0x09, 0x3b, 0xbe,
  0x4f, 0x55, 0x42, 0xbe, 0xb7, 0x58, 0x7c, 0xbe, 0xee, 0x8a, 0xb7, 0xbc,
  0xc3, 0x51, 0x96, 0xbc, 0x24, 0xda, 0xd8, 0xbd, 0x78, 0xb5, 0x81, 0xbc,
  0xd6, 0x5e, 0x04, 0xbe, 0xc0, 0x97, 0xfa, 0xbd, 0x65, 0xf8, 0xfd, 0x3a,
  0x91, 0x60, 0x8e, 0xbe, 0xe9, 0xf5, 0x6b, 0xbd, 0xe4, 0xcc, 0x51, 0x3d,
  0x5a, 0xa9, 0x32, 0xbe, 0x8e, 0x19, 0x4f, 0xbd, 0x15, 0x29, 0x29, 0xbe,
  0xed, 0x97, 0x46, 0xbe, 0x31, 0x4f, 0x37, 0xbe, 0x67, 0xb4, 0x20, 0x3e,
  0xa2, 0x08, 0xe8, 0xbd, 0x2e, 0xb9, 0x87, 0x3c, 0xc4, 0x20, 0x40, 0xbc,
  0x6e, 0x5d, 0x2c, 0xbe, 0x79, 0x75, 0xbf, 0x3c, 0x56, 0x24, 0x79, 0x3d,
  0x76, 0x23, 0xc6, 0xbd, 0x08, 0x5d, 0x86, 0xbd, 0x56, 0x4f, 0x90, 0xbe,
  0xd2, 0xe9, 0x8d, 0xbe, 0x35, 0xa9, 0x4a, 0xbe, 0xc5, 0xd3, 0x48, 0x3d,
  0x9d, 0x51, 0x98, 0xbe, 0xac, 0xbe, 0x82, 0x3d, 0xaf, 0xa7, 0x86, 0xbe,
  0x80, 0x8c, 0x55, 0x3c, 0x1e, 0xc2, 0x29, 0x3e, 0x61, 0x5d, 0xf8, 0xbd,
  0xef, 0x70, 0x7b, 0x3e, 0x8d, 0x44, 0x61, 0x3e, 0x35, 0xae, 0x0a, 0xbe,
  0x1e, 0x95, 0x3a, 0xbd, 0xf4, 0xa7, 0x2c, 0x3f, 0x69, 0x43, 0x3b, 0xbe,
  0x89, 0x84, 0x8d, 0xbe, 0x52, 0x4c, 0xd6, 0x3c, 0x70, 0xec, 0x87, 0x3c,
  0x56, 0xdd, 0x4c, 0x3e, 0x34, 0x1d, 0xa4, 0x3e, 0x5a, 0xd1, 0x8b, 0x3e,
  0x09, 0xda, 0xcc, 0x3c, 0xee, 0xaa, 0x04, 0x3e, 0x86, 0xd1, 0x9a, 0x3e,
  0xca, 0x2c, 0x90, 0xbd, 0xa9, 0x5c, 0x1e, 0x3e, 0x0d, 0x09, 0x0b, 0x3e,
  0xed, 0x8d, 0x1f, 0xbd, 0xbf, 0x46, 0x2d, 0x3d, 0xa3, 0xd7, 0x78, 0x3e,
  0x25, 0x05, 0xc4, 0xbb, 0x1f, 0x58, 0xd4, 0xbe, 0xc5, 0xa3, 0xa5, 0xbd,
  0x48, 0xbe, 0x66, 0xbe, 0x2e, 0xe8, 0xf8, 0x3d, 0x2f, 0xc2, 0x5f, 0xbb,
  0x97, 0xd7, 0xb4, 0x3d, 0xde, 0x82, 0xcf, 0xbd, 0x36, 0xc6, 0x45, 0x3e,
  0x93, 0xc3, 0x8e, 0x3e, 0xf8, 0xc6, 0xcd, 0xbd, 0xc9, 0xb2, 0x50, 0xbe,
  0x2f, 0x30, 0x11, 0x3d, 0x2e, 0xb0, 0x9f, 0x3e, 0xb1, 0xae, 0x6b, 0xbd,
  0x14, 0x02, 0xb6, 0xbe, 0xee, 0x00, 0x53, 0x3e, 0x4a, 0x0a, 0x76, 0xbe,
  0x8b, 0x48, 0xd7, 0xbd, 0xce, 0xd7, 0xc2, 0xbd, 0x87, 0xd3, 0xbb, 0x3d,
  0x1c, 0x12, 0x3a, 0xbe, 0x90, 0x3d, 0x07, 0x3e, 0xbd, 0x09, 0x43, 0xbd,
  0x03, 0x58, 0xff, 0x3d, 0xcb, 0x15, 0xa5, 0x3d, 0x7a, 0xa9, 0xd2, 0xbc,
  0x03, 0x57, 0x86, 0xbd, 0x59, 0xdd, 0xb3, 0x3d, 0x93, 0x97, 0x69, 0x3e,
  0x18, 0x3c, 0x05, 0x3e, 0xde, 0xbb, 0x0b, 0xbf, 0xb5, 0x17, 0xa6, 0x3e,
  0x36, 0x31, 0x28, 0xbe, 0xd7, 0x39, 0x42, 0xbd, 0x35, 0xc1, 0xfd, 0xbd,
  0xd5, 0xf3, 0xc8, 0x3d, 0x7a, 0x9c, 0x5d, 0xbe, 0x70, 0x67, 0x3a, 0x3e,
  0xe9, 0x91, 0x23, 0xbe, 0xa4, 0x22, 0x24, 0x3e, 0x17, 0x89, 0xec, 0x3d,
  0xc1, 0x5e, 0x65, 0xbd, 0xe6, 0xaa, 0x82, 0x3d, 0xca, 0x4a, 0x7f, 0x3d,
  0xb7, 0xee, 0x69, 0xbd, 0xf9, 0x5e, 0x03, 0x3e, 0x83, 0x39, 0x63, 0xbf,
  0xd5, 0xe5, 0x32, 0xbe, 0x6a, 0x90, 0xc4, 0xbe, 0xec, 0x43, 0xe5, 0x3c,
  0x79, 0x2e, 0x91, 0xbe, 0x71, 0x54, 0x09, 0x3e, 0xfc, 0x7d, 0xb9, 0xbd,
  0x09, 0x3d, 0x45, 0xbc, 0xa5, 0x58, 0x32, 0xbe, 0x5e, 0xe2, 0xad, 0x3d,
  0x28, 0xd8, 0x9c, 0x3d, 0xb7, 0xc5, 0xc9, 0xbe, 0xea, 0x2a, 0xd9, 0xbd,
  0x9f, 0xdc, 0x5f, 0xbd, 0x2c, 0xc5, 0x9b, 0xbd, 0xc3, 0x66, 0x00, 0x3e,
  0x0d, 0x48, 0x0c, 0xbf, 0x1d, 0xed, 0xde, 0xbd, 0x17, 0x32, 0xc5, 0xbe,
  0xcf, 0x9c, 0x2a, 0x3c, 0x5f, 0xbf, 0xc8, 0xbe, 0xac, 0x3f, 0x8b, 0x3d,
  0xd0, 0x97, 0xc6, 0xbd, 0x52, 0x52, 0xed, 0x3e, 0x38, 0xe7, 0x4b, 0x3d,
  0x4e, 0xc9, 0xf0, 0x3d, 0x28, 0x87, 0x41, 0xbd, 0xa3, 0xd3, 0x52, 0xbe,
  0x07, 0x28, 0xef, 0x3d, 0x9a, 0xfd, 0x25, 0x3e, 0x8a, 0xf8, 0x9f, 0xbd,
  0xb7, 0x81, 0x29, 0xbd, 0x0a, 0x9a, 0xa3, 0xbc, 0x84, 0xad, 0x2f, 0xbe,
  0x72, 0xb3, 0xbe, 0xbe, 0xac, 0x6a, 0x35, 0xbd, 0x8b, 0x53, 0xac, 0xbe,
  0xed, 0x73, 0x21, 0x3e, 0xcf, 0x02, 0xb7, 0xbd, 0xcf, 0x53, 0xe0, 0x3e,
  0x61, 0xe6, 0x1a, 0x3e, 0xfb, 0x22, 0x48, 0x3e, 0x37, 0x73, 0x19, 0x3e,
  0x09, 0x2f, 0x41, 0xbd, 0x2e, 0xa7, 0x36, 0xbe, 0xfa, 0xb0, 0x44, 0xbe,
  0x77, 0x67, 0x68, 0x3c, 0xc1, 0xbd, 0xab, 0x3d, 0x6f, 0x59, 0x60, 0xbe,
  0x21, 0xb3, 0xc4, 0xbd, 0xec, 0x88, 0x22, 0xbc, 0xea, 0x41, 0x75, 0xbe,
  0xa7, 0x65, 0x33, 0xbe, 0xbf, 0x55, 0x24, 0xbd, 0x93, 0x8d, 0x69, 0xbe,
  0x28, 0xef, 0x00, 0xbe, 0xda, 0x22, 0xdb, 0x3d, 0xa7, 0xd2, 0x49, 0x3e,
  0x40, 0x31, 0x04, 0x3e, 0x18, 0x10, 0x3f, 0xbe, 0x79, 0x6d, 0xb1, 0xbd,
  0xfd, 0x30, 0x1e, 0xbe, 0xd6, 0x3e, 0xd4, 0x3d, 0x10, 0x4b, 0x60, 0x3e,
  0xbe, 0x1d, 0x06, 0x3e, 0x35, 0xea, 0x59, 0xbc, 0x3f, 0xe3, 0xc4, 0xbe,
  0x36, 0x01, 0x9e, 0xbe, 0x53, 0x1a, 0x6f, 0xbe, 0xa0, 0xdd, 0xa6, 0xbd,
  0x64, 0x98, 0xee, 0xbd, 0xed, 0x81, 0x71, 0xbd, 0x12, 0xf9, 0x06, 0xbe,
  0xc1, 0x9e, 0x98, 0xbd, 0xc8, 0x76, 0xa7, 0x3e, 0xb9, 0x83, 0x8a, 0xbe,
  0x52, 0x51, 0x0b, 0x3e, 0xbb, 0xf5, 0x08, 0x3e, 0xd9, 0x9b, 0x19, 0xbd,
  0xc7, 0x2f, 0xfc, 0x3d, 0x53, 0x5c, 0xfd, 0x3d, 0x3f, 0x21, 0x6e, 0x3b,
  0xda, 0x43, 0xbf, 0xbd, 0x94, 0x37, 0x3d, 0xbe, 0x34, 0x3e, 0xe2, 0xbd,
  0xa9, 0x52, 0xf3, 0xbd, 0xa6, 0x28, 0x56, 0xbe, 0xc5, 0x73, 0xb7, 0x3d,
  0x17, 0x19, 0xcd, 0xbc, 0xc6, 0xbd, 0x50, 0xbe, 0x74, 0x56, 0x4d, 0x3e,
  0x7d, 0xe4, 0xe4, 0xbd, 0x48, 0x6f, 0xe9, 0xbc, 0xf3, 0xef, 0x13, 0x3d,
  0x54, 0xfe, 0x19, 0x3e, 0xa8, 0x03, 0x89, 0xbd, 0xa1, 0xa9, 0x49, 0x3d,
  0x5c, 0xe8, 0x2a, 0x3e, 0x6a, 0xdf, 0x6c, 0xbd, 0x2f, 0x32, 0x7d, 0xbe,
  0xe2, 0xcd, 0x00, 0xbe, 0x52, 0x3f, 0xf1, 0x3d, 0x7b, 0x7e, 0xc1, 0xbd,
  0x20, 0x65, 0xa7, 0x3e, 0xea, 0x37, 0x8f, 0x3b, 0x4b, 0xc9, 0x54, 0xbe,
  0x95, 0x31, 0x82, 0x3e, 0xe1, 0xa7, 0x11, 0xbd, 0x75, 0xc6, 0xbf, 0x3e,
  0x5e, 0xf4, 0x1c, 0xbd, 0x99, 0x76, 0x89, 0x3d, 0x29, 0x19, 0x32, 0x3c,
  0xc7, 0x28, 0x43, 0xbe, 0xfe, 0x71, 0xad, 0xbd, 0xcb, 0x44, 0xaa, 0xba,
  0xfc, 0x7e, 0x60, 0xbe, 0xff, 0x2e, 0x07, 0xbc, 0x96, 0xed, 0x48, 0xbe,
  0x9f, 0x30, 0x06, 0x3e, 0x28, 0x39, 0x07, 0xbe, 0xcf, 0x37, 0x36, 0x3d,
  0xbc, 0x7d, 0x63, 0xbd, 0xde, 0x1b, 0x10, 0x3e, 0xb9, 0xb7, 0x48, 0x3d,
  0xac, 0x14, 0x2d, 0x3e, 0x96, 0x65, 0x83, 0x3d, 0x2d, 0xd9, 0x64, 0xbd,
  0xbd, 0xcc, 0xa7, 0xbd, 0x04, 0x41, 0x6f, 0xbe, 0x42, 0xc5, 0x35, 0xbe,
  0x29, 0xdf, 0x79, 0x3d, 0xc2, 0xd5, 0x2a, 0xbe, 0x03, 0x0f, 0xd8, 0xbd,
  0xd5, 0xa5, 0xf6, 0xbd, 0x2b, 0xf7, 0x92, 0x3e, 0x9a, 0xd8, 0x10, 0xbe,
  0x84, 0x06, 0x22, 0x3d, 0xc4, 0x0c, 0x3f, 0xbe, 0xb9, 0x12, 0x56, 0x3b,
  0xce, 0x32, 0x41, 0xbe, 0x0a, 0x52, 0x00, 0xbe, 0x17, 0xba, 0x38, 0x3e,
  0x3f, 0xe1, 0xe9, 0xbd, 0x4e, 0xea, 0x97, 0xbd, 0x0a, 0xdd, 0x5b, 0x3e,
  0xc4, 0xf7, 0xc1, 0xbd, 0x05, 0xd9, 0x51, 0xbe, 0x31, 0xb0, 0x3f, 0xbe,
  0xd9, 0xb7, 0x14, 0x3d, 0x85, 0x97, 0xb5, 0xbd, 0x3b, 0xfc, 0x0b, 0x3c,
  0xa5, 0x0f, 0x8b, 0x3e, 0x36, 0xb6, 0x0e, 0xbe, 0x7d, 0x66, 0x15, 0xbe,
  0xde, 0xa6, 0x9d, 0xbe, 0x53, 0x12, 0x23, 0xbe, 0x3c, 0x1b, 0x8d, 0x3e,
  0x7b, 0xe2, 0xc8, 0xbd, 0x7c, 0x52, 0x3a, 0x3e, 0x24, 0xab, 0xf2, 0xbd,
  0x36, 0xa2, 0x4d, 0x3f, 0xa8, 0x34, 0x9b, 0x3d, 0xa4, 0x96, 0x32, 0xbc,
  0xd0, 0xe5, 0x9c, 0xbe, 0xb4, 0x93, 0x8d, 0x3d, 0x5f, 0x24, 0xb1, 0xbd,
  0x06, 0x9e, 0x26, 0xbd, 0x72, 0xdc, 0x38, 0xbe, 0x15, 0xe0, 0x1f, 0x3f,
  0xcd, 0xb1, 0xb3, 0x3d, 0x63, 0x65, 0x8b, 0xbe, 0x09, 0x72, 0x99, 0xbe,
  0xa8, 0x9c, 0xb6, 0x3d, 0xb6, 0x66, 0x2d, 0xbd, 0xe9, 0xe6, 0x32, 0x3e,
  0x83, 0x32, 0xda, 0xbe, 0xa9, 0x3f, 0x88, 0x3f, 0xfc, 0x62, 0xf2, 0x3d,
  0x75, 0x44, 0x21, 0xbe, 0x5a, 0x65, 0x03, 0xbf, 0x7d, 0xe8, 0x8f, 0x3d,
  0x10, 0xd1, 0x10, 0x3e, 0x13, 0xfe, 0xd9, 0xbd, 0x9d, 0xd9, 0x16, 0x3f,
  0xc2, 0xbe, 0x5a, 0x3e, 0x1c, 0xf2, 0xb8, 0x3d, 0xf3, 0x5a, 0xe5, 0xbd,
  0x34, 0x0f, 0x55, 0xbe, 0x90, 0x3d, 0x7b, 0x3e, 0x0c, 0x69, 0x49, 0xbe,
  0x6c, 0x67, 0xcd, 0x3e, 0x2e, 0xff, 0x3a, 0xbe, 0xba, 0xfc, 0xd8, 0x3f,
  0xf0, 0x1e, 0x07, 0xbe, 0xcb, 0xec, 0xad, 0xbd, 0xe7, 0x03, 0x30, 0xbe,
  0x64, 0x90, 0x94, 0xbe, 0xaa, 0x6f, 0x86, 0x3f, 0x0e, 0xd6, 0xd9, 0x3d,
  0xc7, 0x1c, 0x7f, 0x3f, 0xc5, 0x20, 0x3d, 0x3f, 0x6a, 0xc7, 0x3e, 0x3e,
  0x5a, 0x29, 0x42, 0xbe, 0xd2, 0x4c, 0x71, 0xbd, 0x81, 0x83, 0x0d, 0x3f,
  0x58, 0x37, 0x9e, 0x3d, 0x08, 0x24, 0x8d, 0xbe, 0x84, 0x33, 0xc6, 0xbe,
  0x16, 0xd5, 0x04, 0x40, 0x18, 0xb1, 0xef, 0xbd, 0xe7, 0xa9, 0x1d, 0x3f,
  0xe2, 0xb0, 0xbb, 0xbe, 0x16, 0x79, 0xdb, 0xbd, 0xde, 0x58, 0xf6, 0x3d,
  0x3b, 0x3b, 0xb2, 0xbc, 0xd3, 0x04, 0x61, 0x3f, 0x6a, 0xf2, 0xc3, 0x3f,
  0x36, 0x4f, 0x93, 0xbd, 0xb6, 0xa1, 0x22, 0xbc, 0xd0, 0x9b, 0xeb, 0xbe,
  0x01, 0xce, 0xc8, 0x3e, 0xd0, 0xef, 0x94, 0xbc, 0xa4, 0x67, 0x7e, 0xbc,
  0xd1, 0x5c, 0xb6, 0xbe, 0xb1, 0xc5, 0xd4, 0x3f, 0x2c, 0xf8, 0xbf, 0x3e,
  0x45, 0x17, 0xd2, 0x3e, 0xe6, 0x91, 0xac, 0xbe, 0xba, 0xa3, 0xcb, 0x3b,
  0xbe, 0x0e, 0x4b, 0x3e, 0x9a, 0xd4, 0x0f, 0xbe, 0xd8, 0x8a, 0xbf, 0x3e,
  0xf7, 0x7d, 0xbb, 0x3f, 0xcc, 0x73, 0x9c, 0xbd, 0x71, 0xc4, 0xc7, 0xbe,
  0x8e, 0xb1, 0xed, 0xbe, 0xe2, 0x04, 0x3b, 0x3e, 0xf1, 0x8e, 0x26, 0xbe,
  0x1c, 0x2c, 0xdd, 0xbd, 0x9d, 0xd6, 0x30, 0xbe, 0xde, 0x81, 0x74, 0x40,
  0xc6, 0x6f, 0x23, 0xbe, 0xbb, 0x4c, 0x45, 0x3e, 0x91, 0xfa, 0xfa, 0xbe,
  0x75, 0x42, 0xb9, 0xbd, 0xd7, 0x46, 0x0e, 0xbe, 0x65, 0x64, 0x31, 0xbc,
  0x21, 0xa9, 0x26, 0x3e, 0xcf, 0xa9, 0x9d, 0x3e, 0xca, 0xb6, 0xcf, 0x3d,
  0x54, 0x0f, 0x7c, 0xbe, 0xd3, 0x88, 0xa7, 0xbe, 0x1d, 0x9f, 0xc4, 0x3d,
  0x8c, 0xb3, 0x3d, 0x3c, 0x3f, 0xb1, 0x3e, 0xbd, 0x68, 0xc0, 0xf3, 0xbd,
  0xb4, 0xd9, 0xf5, 0x3e, 0x3f, 0x1f, 0x81, 0xbd, 0x55, 0xaa, 0xa6, 0x3e,
  0x8f, 0xe7, 0x84, 0xbd, 0x4d, 0x82, 0x03, 0xbe, 0x3a, 0x01, 0x9b, 0xbb,
  0x31, 0xaf, 0x1c, 0x3b, 0x53, 0x70, 0x0c, 0x3e, 0xcf, 0xe9, 0x75, 0xbe,
  0xc4, 0xf0, 0x53, 0xbe, 0xe4, 0x4f, 0xd9, 0xbc, 0x19, 0x06, 0xf7, 0xbd,
  0x0a, 0x43, 0x89, 0xbc, 0xcc, 0x82, 0x99, 0x3d, 0x95, 0x09, 0xce, 0xbc,
  0x8e, 0x97, 0xf9, 0x3d, 0xdd, 0x45, 0x7c, 0xbe, 0x33, 0xd7, 0xda, 0x3c,
  0x1e, 0xc6, 0x2d, 0xbe, 0x04, 0x61, 0x58, 0x3d, 0x58, 0xd6, 0x79, 0xbe,
  0x88, 0xcb, 0x16, 0xbd, 0x5d, 0x63, 0xc7, 0x3d, 0x2b, 0xc4, 0x11, 0x3d,
  0xc2, 0x61, 0xaf, 0xbc, 0xa6, 0x7f, 0x0c, 0xbd, 0xfe, 0xf0, 0xdc, 0xbd,
  0x3d, 0x12, 0x8d, 0xbe, 0x0c, 0xbf, 0xa2, 0x3d, 0xf3, 0xa5, 0xf0, 0x3b,
  0xa1, 0xae, 0x7a, 0xbd, 0x54, 0x87, 0xc7, 0x3d, 0x70, 0x14, 0x82, 0xbd,
  0xb7, 0x0e, 0x9a, 0xbc, 0xfb, 0xfb, 0xb6, 0xbc, 0x8d, 0x6b, 0x0a, 0x3d,
  0x8c, 0x86, 0xf8, 0xbd, 0x11, 0x80, 0x24, 0x3d, 0x14, 0x3e, 0xe2, 0x3b,
  0x69, 0xfd, 0x07, 0x3e, 0x0b, 0x95, 0xb0, 0xbd, 0x21, 0xc2, 0xdc, 0x3d,
  0x09, 0xba, 0x08, 0xbe, 0x3a, 0x53, 0x52, 0xbe, 0x80, 0x4a, 0xac, 0xbd,
  0x66, 0x4f, 0x70, 0x3d, 0x8f, 0x53, 0x59, 0xbe, 0xe7, 0xbb, 0x59, 0xbd,
  0xa6, 0xbe, 0x06, 0xbf, 0xee, 0x7a, 0x21, 0x3c, 0xe2, 0x52, 0x92, 0xbd,
  0x89, 0xc4, 0x80, 0xbb, 0x6e, 0x06, 0x8a, 0x3d, 0x59, 0xda, 0xd6, 0x3d,
  0x6e, 0xa9, 0x03, 0xbd, 0xe8, 0x10, 0x3a, 0x3c, 0x01, 0x73, 0x82, 0xbc,
  0xf6, 0xab, 0x44, 0xbe, 0x60, 0x1b, 0xb6, 0xbc, 0x69, 0x7a, 0xa7, 0x3d,
  0x37, 0x94, 0x9a, 0xbc, 0xe1, 0x42, 0x1f, 0x3c, 0xd8, 0x49, 0x29, 0xbe,
  0x7f, 0x11, 0x41, 0x3d, 0x8c, 0x86, 0x2d, 0xbf, 0xf2, 0xdc, 0xd0, 0xbd,
  0x9f, 0x09, 0x42, 0xbe, 0x85, 0x6f, 0xc2, 0x3b, 0x2d, 0x1f, 0x34, 0x3d,
  0xad, 0xb2, 0x1e, 0x3e, 0xcb, 0xca, 0x82, 0xbc, 0x16, 0xdd, 0xf8, 0x3d,
  0xf0, 0xb7, 0x05, 0x3c, 0x9c, 0x48, 0x3c, 0xbd, 0xa3, 0xc6, 0x26, 0xbc,
  0xb4, 0x45, 0x81, 0xbd, 0x2c, 0xdc, 0xf2, 0xbd, 0xe1, 0x6c, 0xd0, 0xbd,
  0x3b, 0x50, 0x7c, 0x3d, 0x81, 0x8a, 0x10, 0xbd, 0xd4, 0xe2, 0xca, 0xbe,
  0x1a, 0xdd, 0x2e, 0xbe, 0x3e, 0xb7, 0x4e, 0xbe, 0x22, 0xc8, 0x12, 0x3c,
  0x62, 0xdc, 0x12, 0xbd, 0xd0, 0x04, 0x4f, 0x3d, 0x64, 0x0b, 0xdf, 0x3b,
  0x48, 0xc8, 0xe7, 0x3d, 0x84, 0xd1, 0x61, 0x3b, 0x95, 0x2e, 0x17, 0xbd,
  0x97, 0x82, 0x81, 0x3d, 0xbb, 0xff, 0x15, 0xbd, 0xaf, 0xc5, 0x9a, 0xbe,
  0x73, 0x32, 0x30, 0xbd, 0x41, 0x3e, 0xec, 0x3d, 0x06, 0x4e, 0xc0, 0xbc,
  0x4c, 0x34, 0xfd, 0xbe, 0x0e, 0x7a, 0x30, 0xbc, 0xfa, 0x05, 0xc3, 0xbd,
  0xfa, 0xad, 0x03, 0x3d, 0x27, 0x37, 0xc0, 0xbd, 0x97, 0x7f, 0xa6, 0x3d,
  0x61, 0x5d, 0x85, 0x3c, 0x92, 0xcf, 0x0c, 0x3e, 0xbb, 0x1b, 0xb8, 0xbd,
  0xce, 0x4f, 0x91, 0xbd, 0x4e, 0x82, 0x98, 0x3b, 0x6f, 0xca, 0x96, 0x3c,
  0xcf, 0xbd, 0x8f, 0xbc, 0xf7, 0x63, 0xb6, 0x3c, 0x32, 0xf4, 0x26, 0x3e,
  0x1d, 0x33, 0x88, 0x3d, 0xa4, 0x5e, 0x67, 0xbd, 0x0d, 0x58, 0x9b, 0x3d,
  0x12, 0x2a, 0x01, 0xbe, 0x33, 0x80, 0x5e, 0x3d, 0x55, 0x8e, 0xb6, 0xbd,
  0x32, 0x03, 0xf2, 0x3d, 0xe2, 0xfa, 0xe1, 0x3c, 0xc7, 0x68, 0x83, 0x3e,
  0xb7, 0x79, 0x10, 0x3d, 0x67, 0x58, 0xd7, 0xbc, 0x2c, 0xc9, 0xca, 0xbd,
  0x11, 0x82, 0x26, 0xbe, 0xdd, 0xe4, 0xb0, 0x3e, 0xe8, 0xd0, 0x20, 0x3e,
  0xd0, 0x87, 0xdb, 0xbe, 0x0f, 0xd7, 0xc7, 0xbe, 0x8e, 0x0d, 0x1e, 0x40,
  0x63, 0x39, 0xeb, 0xbd, 0xe4, 0x56, 0xaf, 0x3e, 0x0a, 0xb2, 0x1e, 0xbf,
  0x02, 0x91, 0xff, 0xbe, 0x81, 0x1c, 0xba, 0xbd, 0x63, 0x69, 0xb9, 0xbe,
  0xd2, 0xec, 0x73, 0xbe, 0xcc, 0x26, 0xd1, 0x3e, 0xb4, 0x32, 0x8b, 0x3c,
  0xad, 0x4a, 0xa1, 0xbe, 0x41, 0xba, 0x14, 0xbb, 0x7d, 0x82, 0x91, 0xbc,
  0x01, 0x12, 0x9c, 0x3d, 0x12, 0xc7, 0xb4, 0x3e, 0x22, 0xd2, 0xa1, 0xbe,
  0x39, 0x50, 0xb9, 0x3f, 0x0e, 0xdb, 0x0b, 0xbe, 0xf8, 0x7c, 0xbd, 0x3d,
  0x07, 0x34, 0x3a, 0xbf, 0x15, 0x4e, 0xb7, 0xbe, 0x05, 0xca, 0x82, 0x3f,
  0x13, 0x19, 0x75, 0xbe, 0xe9, 0xa7, 0x8c, 0x3f, 0x81, 0x97, 0x22, 0x3f,
  0xf1, 0x80, 0x83, 0x3a, 0xb5, 0x0b, 0xbe, 0xbd, 0xf9, 0xc0, 0xc9, 0xbe,
  0xa1, 0x6b, 0x65, 0xbd, 0x3e, 0x36, 0x43, 0xbc, 0xab, 0x6f, 0xcf, 0x3d,
  0x24, 0x9c, 0xc8, 0xbd, 0xf4, 0x5d, 0x74, 0x40, 0xfe, 0x0f, 0x87, 0x3b,
  0xf3, 0xd7, 0x20, 0x3f, 0xdd, 0x0d, 0x38, 0xbf, 0xbc, 0xca, 0x1d, 0xbf,
  0x9c, 0x9d, 0x9f, 0x3f, 0xb0, 0x8a, 0x15, 0xbf, 0x34, 0x6e, 0xa1, 0x3f,
  0x90, 0x76, 0x01, 0x3f, 0x60, 0x52, 0xba, 0x3c, 0xdf, 0xad, 0x1d, 0x3e,
  0x0b, 0x7d, 0x93, 0xbe, 0x42, 0x52, 0x0a, 0x3e, 0x1a, 0xcf, 0xa0, 0x3d,
  0x3d, 0x5d, 0x14, 0x3e, 0x70, 0x36, 0x8c, 0xbe, 0xbb, 0x21, 0x39, 0x40,
  0x83, 0x96, 0xd0, 0xbd, 0x49, 0xee, 0x2b, 0x3f, 0x37, 0x20, 0x48, 0xbf,
  0xf4, 0x52, 0x6a, 0xbe, 0x97, 0x74, 0xde, 0x3d, 0x34, 0x22, 0x07, 0xbe,
  0xf4, 0x16, 0xd3, 0x3f, 0xee, 0x85, 0x84, 0x3d, 0xc0, 0xbc, 0x14, 0xbe,
  0x99, 0xe5, 0x6f, 0xbd, 0x20, 0x24, 0x08, 0x3c, 0x14, 0x47, 0x99, 0x3d,
  0x33, 0xab, 0xb1, 0x3c, 0xb1, 0x77, 0xe7, 0x3d, 0x4e, 0x46, 0x6f, 0xb9,
  0x36, 0x54, 0x09, 0x40, 0x1d, 0xe2, 0x31, 0x3b, 0x25, 0x30, 0x19, 0x3e,
  0xe3, 0x1f, 0x2b, 0xbf, 0x77, 0xba, 0x5f, 0xbe, 0xc3, 0xf5, 0x42, 0x3d,
  0xc2, 0xe5, 0xd9, 0xbe, 0x47, 0x39, 0xda, 0x3e, 0x12, 0xac, 0xd9, 0xbd,
  0xfa, 0x1f, 0x68, 0x3d, 0xbb, 0xab, 0xd0, 0xbd, 0x87, 0x57, 0xd8, 0xbe,
  0x47, 0x45, 0x33, 0x3e, 0xf3, 0x9d, 0x4c, 0x3d, 0xcf, 0x9d, 0x87, 0x3e,
  0x8f, 0xc1, 0x13, 0xbd, 0xe7, 0x6e, 0x98, 0x40, 0xa5, 0x59, 0x74, 0xbe,
  0x30, 0xe1, 0xe3, 0x3d, 0xf4, 0xf0, 0x0c, 0xbf, 0x6b, 0x5b, 0xc2, 0xbe,
  0x57, 0x36, 0x52, 0x3e, 0x14, 0x61, 0x5f, 0xbe, 0xc4, 0xf2, 0x66, 0xbd,
  0x60, 0x1a, 0x65, 0xbd, 0xa1, 0x58, 0xb2, 0x3a, 0x55, 0xb1, 0xe6, 0xbd,
  0xe5, 0xee, 0xcc, 0xbe, 0xbc, 0x54, 0x5e, 0xbe, 0xb4, 0x8a, 0x86, 0x3d,
  0x51, 0x5a, 0x8e, 0x3e, 0xe2, 0x21, 0x84, 0xbe, 0x6e, 0x9c, 0x00, 0x3e,
  0xf4, 0x5b, 0x62, 0xbe, 0x98, 0xe0, 0xbc, 0x3e, 0x3c, 0x95, 0xbe, 0xbe,
  0x4f, 0xcb, 0x44, 0xbe, 0xae, 0x96, 0x05, 0x3e, 0x4c, 0x9b, 0x01, 0xbf,
  0x54, 0x19, 0xd6, 0x3e, 0x8e, 0x8f, 0xdb, 0xbe, 0x66, 0xab, 0x35, 0xbd,
  0x46, 0xfe, 0xff, 0xff, 0x10, 0x00, 0x00, 0x00, 0x05, 0x00, 0x00, 0x00,
  0x14, 0x00, 0x00, 0x00, 0x2c, 0x00, 0x00, 0x00, 0x02, 0x00, 0x00, 0x00,
  0x10, 0x00, 0x00, 0x00, 0x70, 0x00, 0x00, 0x00, 0x17, 0x00, 0x00, 0x00,
  0x73, 0x65, 0x71, 0x75, 0x65, 0x6e, 0x74, 0x69, 0x61, 0x6c, 0x2f, 0x64,
  0x65, 0x6e, 0x73, 0x65, 0x2f, 0x4d, 0x61, 0x74, 0x4d, 0x75, 0x6c, 0x00,
  0x34, 0xfe, 0xff, 0xff, 0x2a, 0xff, 0xff, 0xff, 0x04, 0x00, 0x00, 0x00,
  0x08, 0x00, 0x00, 0x00, 0xff, 0xff, 0xff, 0xff, 0x70, 0x00, 0x00, 0x00,
  0x00, 0x00, 0x0e, 0x00, 0x18, 0x00, 0x08, 0x00, 0x07, 0x00, 0x0c, 0x00,
  0x10, 0x00, 0x14, 0x00, 0x0e, 0x00, 0x00, 0x00, 0x00, 0x00, 0x00, 0x02,
  0x10, 0x00, 0x00, 0x00, 0x04, 0x00, 0x00, 0x00, 0x10, 0x00, 0x00, 0x00,
  0x2c, 0x00, 0x00, 0x00, 0x01, 0x00, 0x00, 0x00, 0x02, 0x00, 0x00, 0x00,
  0x18, 0x00, 0x00, 0x00, 0x73, 0x65, 0x71, 0x75, 0x65, 0x6e, 0x74, 0x69,
  0x61, 0x6c, 0x2f, 0x66, 0x6c, 0x61, 0x74, 0x74, 0x65, 0x6e, 0x2f, 0x43,
  0x6f, 0x6e, 0x73, 0x74, 0x00, 0x00, 0x00, 0x00, 0x9c, 0xfe, 0xff, 0xff,
  0x92, 0xff, 0xff, 0xff, 0x04, 0x00, 0x00, 0x00, 0x10, 0x00, 0x00, 0x00,
  0xaa, 0xac, 0xee, 0x3f, 0x28, 0x18, 0x3e, 0xbe, 0x4e, 0x3e, 0xdc, 0xbf,
  0x52, 0x57, 0x25, 0xbf, 0x0a, 0xff, 0xff, 0xff, 0x10, 0x00, 0x00, 0x00,
  0x03, 0x00, 0x00, 0x00, 0x10, 0x00, 0x00, 0x00, 0x3c, 0x00, 0x00, 0x00,
  0x01, 0x00, 0x00, 0x00, 0x04, 0x00, 0x00, 0x00, 0x29, 0x00, 0x00, 0x00,
  0x73, 0x65, 0x71, 0x75, 0x65, 0x6e, 0x74, 0x69, 0x61, 0x6c, 0x2f, 0x64,
  0x65, 0x6e, 0x73, 0x65, 0x5f, 0x31, 0x2f, 0x42, 0x69, 0x61, 0x73, 0x41,
  0x64, 0x64, 0x2f, 0x52, 0x65, 0x61, 0x64, 0x56, 0x61, 0x72, 0x69, 0x61,
  0x62, 0x6c, 0x65, 0x4f, 0x70, 0x00, 0x00, 0x00, 0x60, 0xff, 0xff, 0xff,
  0x00, 0x00, 0x06, 0x00, 0x08, 0x00, 0x04, 0x00, 0x06, 0x00, 0x00, 0x00,
  0x04, 0x00, 0x00, 0x00, 0x40, 0x00, 0x00, 0x00, 0xb2, 0x0c, 0x24, 0x40,
  0x9f, 0x5d, 0xb1, 0x3f, 0x0f, 0xfa, 0xaf, 0x3e, 0xde, 0x6b, 0xaf, 0xbd,
  0x04, 0xbf, 0xe9, 0x3f, 0xa9, 0x89, 0x2d, 0xbe, 0x7a, 0x6a, 0x95, 0xbe,
  0x13, 0x9f, 0x37, 0xbe, 0xb4, 0x81, 0x36, 0x3f, 0x4f, 0x77, 0xb8, 0x3e,
  0xc0, 0x4a, 0x1e, 0xbe, 0xda, 0x59, 0x56, 0x3f, 0xb1, 0xb8, 0xc7, 0xbe,
  0x3c, 0xa3, 0xa9, 0x3c, 0x14, 0xa9, 0xad, 0x3f, 0x46, 0x27, 0xb6, 0x3e,
  0xae, 0xff, 0xff, 0xff, 0x10, 0x00, 0x00, 0x00, 0x02, 0x00, 0x00, 0x00,
  0x10, 0x00, 0x00, 0x00, 0x3c, 0x00, 0x00, 0x00, 0x01, 0x00, 0x00, 0x00,
  0x10, 0x00, 0x00, 0x00, 0x27, 0x00, 0x00, 0x00, 0x73, 0x65, 0x71, 0x75,
  0x65, 0x6e, 0x74, 0x69, 0x61, 0x6c, 0x2f, 0x64, 0x65, 0x6e, 0x73, 0x65,
  0x2f, 0x42, 0x69, 0x61, 0x73, 0x41, 0x64, 0x64, 0x2f, 0x52, 0x65, 0x61,
  0x64, 0x56, 0x61, 0x72, 0x69, 0x61, 0x62, 0x6c, 0x65, 0x4f, 0x70, 0x00,
  0x04, 0x00, 0x06, 0x00, 0x04, 0x00, 0x00, 0x00, 0x00, 0x00, 0x0e, 0x00,
  0x14, 0x00, 0x04, 0x00, 0x00, 0x00, 0x08, 0x00, 0x0c, 0x00, 0x10, 0x00,
  0x0e, 0x00, 0x00, 0x00, 0x10, 0x00, 0x00, 0x00, 0x01, 0x00, 0x00, 0x00,
  0x1c, 0x00, 0x00, 0x00, 0x2c, 0x00, 0x00, 0x00, 0x04, 0x00, 0x00, 0x00,
  0x01, 0x00, 0x00, 0x00, 0x40, 0x00, 0x00, 0x00, 0x03, 0x00, 0x00, 0x00,
  0x01, 0x00, 0x00, 0x00, 0x0c, 0x00, 0x00, 0x00, 0x63, 0x6f, 0x6e, 0x76,
  0x32, 0x64, 0x5f, 0x69, 0x6e, 0x70, 0x75, 0x74, 0x00, 0x00, 0x00, 0x00,
  0xfc, 0xff, 0xff, 0xff, 0x04, 0x00, 0x04, 0x00, 0x04, 0x00, 0x00, 0x00
};

unsigned int model_tflite_len = 12384;// Fill the int in `src/model.cc` here