#include "magic_wand_model_data.h"

// We need to keep the data array aligned on some architectures.
#ifdef __has_attribute
#define HAVE_ATTRIBUTE(x) __has_attribute(x)
#else
#define HAVE_ATTRIBUTE(x) 0
#endif
#if HAVE_ATTRIBUTE(aligned) || (defined(__GNUC__) && !defined(__clang__))
#define DATA_ALIGN_ATTRIBUTE __attribute__((aligned(4)))
#else
#define DATA_ALIGN_ATTRIBUTE
#endif

const unsigned char g_magic_wand_model_data[] DATA_ALIGN_ATTRIBUTE = {
  // Paste the data of the char array in `src/model.cc` here
  0x08, 0x00, 0x00, 0x00, 0x54, 0x46, 0x4c, 0x33, 0x62, 0xff, 0xff, 0xff,
  0x03, 0x00, 0x00, 0x00, 0x10, 0x00, 0x00, 0x00, 0x24, 0x00, 0x00, 0x00,
  0x78, 0x00, 0x00, 0x00, 0x24, 0x00, 0x00, 0x00, 0x05, 0x00, 0x00, 0x00,
  0x78, 0x05, 0x00, 0x00, 0xb0, 0x04, 0x00, 0x00, 0xe0, 0x02, 0x00, 0x00,
  0x60, 0x02, 0x00, 0x00, 0x54, 0x01, 0x00, 0x00, 0x01, 0x00, 0x00, 0x00,
  0x78, 0x00, 0x00, 0x00, 0x13, 0x00, 0x00, 0x00, 0x18, 0x30, 0x00, 0x00,
  0x14, 0x30, 0x00, 0x00, 0x20, 0x2f, 0x00, 0x00, 0xa8, 0x2e, 0x00, 0x00,
  0x3c, 0x2e, 0x00, 0x00, 0xec, 0x11, 0x00, 0x00, 0x98, 0x10, 0x00, 0x00,
  0xbc, 0x0e, 0x00, 0x00, 0x60, 0x06, 0x00, 0x00, 0xfc, 0x05, 0x00, 0x00,
  0x78, 0x05, 0x00, 0x00, 0xec, 0x2f, 0x00, 0x00, 0xe8, 0x2f, 0x00, 0x00,
  0xe4, 0x2f, 0x00, 0x00, 0xe0, 0x2f, 0x00, 0x00, 0xdc, 0x2f, 0x00, 0x00,
  0xd8, 0x2f, 0x00, 0x00, 0xd4, 0x2f, 0x00, 0x00, 0xd0, 0x2f, 0x00, 0x00,
  0x0f, 0x00, 0x00, 0x00, 0x4d, 0x4c, 0x49, 0x52, 0x20, 0x43, 0x6f, 0x6e,
  0x76, 0x65, 0x72, 0x74, 0x65, 0x64, 0x2e, 0x00, 0x00, 0x00, 0x0e, 0x00,
  0x18, 0x00, 0x04, 0x00, 0x08, 0x00, 0x0c, 0x00, 0x10, 0x00, 0x14, 0x00,
  0x0e, 0x00, 0x00, 0x00, 0x14, 0x00, 0x00, 0x00, 0x5c, 0x00, 0x00, 0x00,
  0x60, 0x00, 0x00, 0x00, 0x64, 0x00, 0x00, 0x00, 0x84, 0x00, 0x00, 0x00,
  0x12, 0x00, 0x00, 0x00, 0x48, 0x2f, 0x00, 0x00, 0xe4, 0x2e, 0x00, 0x00,
  0x3c, 0x2e, 0x00, 0x00, 0xd8, 0x2d, 0x00, 0x00, 0x70, 0x2d, 0x00, 0x00,
  0x1c, 0x11, 0x00, 0x00, 0xc0, 0x0f, 0x00, 0x00, 0xe4, 0x0d, 0x00, 0x00,
  0xa0, 0x05, 0x00, 0x00, 0x3c, 0x05, 0x00, 0x00, 0xb0, 0x04, 0x00, 0x00,
  0xe8, 0x03, 0x00, 0x00, 0x38, 0x03, 0x00, 0x00, 0xa4, 0x02, 0x00, 0x00,
  0x10, 0x02, 0x00, 0x00, 0x90, 0x01, 0x00, 0x00, 0xfc, 0x00, 0x00, 0x00,
  0x80, 0x00, 0x00, 0x00, 0x01, 0x00, 0x00, 0x00, 0x00, 0x00, 0x00, 0x00,
  0x01, 0x00, 0x00, 0x00, 0x11, 0x00, 0x00, 0x00, 0x08, 0x00, 0x00, 0x00,
  0x1c, 0x04, 0x00, 0x00, 0x58, 0x03, 0x00, 0x00, 0xc8, 0x02, 0x00, 0x00,
  0x24, 0x02, 0x00, 0x00, 0xac, 0x01, 0x00, 0x00, 0x10, 0x01, 0x00, 0x00,
  0x94, 0x00, 0x00, 0x00, 0x10, 0x00, 0x00, 0x00, 0x04, 0x00, 0x00, 0x00,
  0x6d, 0x61, 0x69, 0x6e, 0x00, 0x00, 0x00, 0x00, 0x8e, 0xff, 0xff, 0xff,
  0x00, 0x00, 0x00, 0x09, 0x04, 0x00, 0x00, 0x00, 0x1c, 0x00, 0x00, 0x00,
  0x10, 0x00, 0x00, 0x00, 0x04, 0x00, 0x00, 0x00, 0x0a, 0xd2, 0xff, 0xff,
  0x00, 0x00, 0x80, 0x3f, 0x01, 0x00, 0x00, 0x00, 0x11, 0x00, 0x00, 0x00,
  0x01, 0x00, 0x00, 0x00, 0x10, 0x00, 0x00, 0x00, 0xf6, 0xfb, 0xff, 0xff,
  0x00, 0x00, 0x00, 0x19, 0x01, 0x00, 0x00, 0x00, 0x8a, 0xd1, 0xff, 0xff,
  0x10, 0x00, 0x00, 0x00, 0x12, 0x00, 0x00, 0x00, 0x14, 0x00, 0x00, 0x00,
  0x20, 0x00, 0x00, 0x00, 0x02, 0x00, 0x00, 0x00, 0x01, 0x00, 0x00, 0x00,
  0x04, 0x00, 0x00, 0x00, 0x08, 0x00, 0x00, 0x00, 0x49, 0x64, 0x65, 0x6e,
  0x74, 0x69, 0x74, 0x79, 0x00, 0x00, 0x00, 0x00, 0xc4, 0xd1, 0xff, 0xff,
  0x00, 0x00, 0x0e, 0x00, 0x18, 0x00, 0x08, 0x00, 0x0c, 0x00, 0x10, 0x00,
  0x07, 0x00, 0x14, 0x00, 0x0e, 0x00, 0x00, 0x00, 0x00, 0x00, 0x00, 0x08,
  0x03, 0x00, 0x00, 0x00, 0x18, 0x00, 0x00, 0x00, 0x0c, 0x00, 0x00, 0x00,
  0x04, 0x00, 0x00, 0x00, 0x98, 0xd1, 0xff, 0xff, 0x01, 0x00, 0x00, 0x00,
  0x10, 0x00, 0x00, 0x00, 0x03, 0x00, 0x00, 0x00, 0x0f, 0x00, 0x00, 0x00,
  0x05, 0x00, 0x00, 0x00, 0x02, 0x00, 0x00, 0x00, 0x02, 0xd2, 0xff, 0xff,
  0x10, 0x00, 0x00, 0x00, 0x11, 0x00, 0x00, 0x00, 0x14, 0x00, 0x00, 0x00,
  0x30, 0x00, 0x00, 0x00, 0x02, 0x00, 0x00, 0x00, 0x01, 0x00, 0x00, 0x00,
  0x04, 0x00, 0x00, 0x00, 0x1a, 0x00, 0x00, 0x00, 0x73, 0x65, 0x71, 0x75,
  0x65, 0x6e, 0x74, 0x69, 0x61, 0x6c, 0x2f, 0x64, 0x65, 0x6e, 0x73, 0x65,
  0x5f, 0x31, 0x2f, 0x42, 0x69, 0x61, 0x73, 0x41, 0x64, 0x64, 0x00, 0x00,
  0xf4, 0xd1, 0xff, 0xff, 0xd6, 0xfd, 0xff, 0xff, 0x00, 0x00, 0x00, 0x08,
  0x03, 0x00, 0x00, 0x00, 0x24, 0x00, 0x00, 0x00, 0x18, 0x00, 0x00, 0x00,
  0x0c, 0x00, 0x00, 0x00, 0x00, 0x00, 0x06, 0x00, 0x08, 0x00, 0x07, 0x00,
  0x06, 0x00, 0x00, 0x00, 0x00, 0x00, 0x00, 0x01, 0x01, 0x00, 0x00, 0x00,
  0x0f, 0x00, 0x00, 0x00, 0x03, 0x00, 0x00, 0x00, 0x0e, 0x00, 0x00, 0x00,
  0x04, 0x00, 0x00, 0x00, 0x01, 0x00, 0x00, 0x00, 0xfe, 0xfc, 0xff, 0xff,
  0x00, 0x00, 0x00, 0x09, 0x01, 0x00, 0x00, 0x00, 0x92, 0xd2, 0xff, 0xff,
  0x10, 0x00, 0x00, 0x00, 0x10, 0x00, 0x00, 0x00, 0x14, 0x00, 0x00, 0x00,
  0x2c, 0x00, 0x00, 0x00, 0x02, 0x00, 0x00, 0x00, 0x01, 0x00, 0x00, 0x00,
  0x10, 0x00, 0x00, 0x00, 0x15, 0x00, 0x00, 0x00, 0x73, 0x65, 0x71, 0x75,
  0x65, 0x6e, 0x74, 0x69, 0x61, 0x6c, 0x2f, 0x64, 0x65, 0x6e, 0x73, 0x65,
  0x2f, 0x52, 0x65, 0x6c, 0x75, 0x00, 0x00, 0x00, 0xd8, 0xd2, 0xff, 0xff,
  0x00, 0x00, 0x0a, 0x00, 0x10, 0x00, 0x04, 0x00, 0x08, 0x00, 0x0c, 0x00,
  0x0a, 0x00, 0x00, 0x00, 0x02, 0x00, 0x00, 0x00, 0x10, 0x00, 0x00, 0x00,
  0x04, 0x00, 0x00, 0x00, 0x01, 0x00, 0x00, 0x00, 0x0e, 0x00, 0x00, 0x00,
  0x02, 0x00, 0x00, 0x00, 0x0d, 0x00, 0x00, 0x00, 0x03, 0x00, 0x00, 0x00,
  0x7a, 0xfd, 0xff, 0xff, 0x00, 0x00, 0x00, 0x16, 0x01, 0x00, 0x00, 0x00,
  0x0e, 0xd3, 0xff, 0xff, 0x10, 0x00, 0x00, 0x00, 0x0f, 0x00, 0x00, 0x00,
  0x14, 0x00, 0x00, 0x00, 0x30, 0x00, 0x00, 0x00, 0x02, 0x00, 0x00, 0x00,
  0x01, 0x00, 0x00, 0x00, 0x70, 0x00, 0x00, 0x00, 0x1a, 0x00, 0x00, 0x00,
  0x73, 0x65, 0x71, 0x75, 0x65, 0x6e, 0x74, 0x69, 0x61, 0x6c, 0x2f, 0x66,
  0x6c, 0x61, 0x74, 0x74, 0x65, 0x6e, 0x2f, 0x52, 0x65, 0x73, 0x68, 0x61,
  0x70, 0x65, 0x00, 0x00, 0x00, 0xd3, 0xff, 0xff, 0xe2, 0xfe, 0xff, 0xff,
  0x00, 0x00, 0x00, 0x05, 0x01, 0x00, 0x00, 0x00, 0x38, 0x00, 0x00, 0x00,
  0x2c, 0x00, 0x00, 0x00, 0x14, 0x00, 0x00, 0x00, 0x00, 0x00, 0x0e, 0x00,
  0x14, 0x00, 0x00, 0x00, 0x10, 0x00, 0x0c, 0x00, 0x08, 0x00, 0x04, 0x00,
  0x0e, 0x00, 0x00, 0x00, 0x03, 0x00, 0x00, 0x00, 0x01, 0x00, 0x00, 0x00,
  0x03, 0x00, 0x00, 0x00, 0x01, 0x00, 0x00, 0x00, 0x01, 0x00, 0x00, 0x00,
  0x0d, 0x00, 0x00, 0x00, 0x01, 0x00, 0x00, 0x00, 0x0c, 0x00, 0x00, 0x00,
  0x9e, 0xd3, 0xff, 0xff, 0x10, 0x00, 0x00, 0x00, 0x0e, 0x00, 0x00, 0x00,
  0x1c, 0x00, 0x00, 0x00, 0x40, 0x00, 0x00, 0x00, 0x04, 0x00, 0x00, 0x00,
  0x01, 0x00, 0x00, 0x00, 0x07, 0x00, 0x00, 0x00, 0x01, 0x00, 0x00, 0x00,
  0x10, 0x00, 0x00, 0x00, 0x22, 0x00, 0x00, 0x00, 0x73, 0x65, 0x71, 0x75,
  0x65, 0x6e, 0x74, 0x69, 0x61, 0x6c, 0x2f, 0x6d, 0x61, 0x78, 0x5f, 0x70,
  0x6f, 0x6f, 0x6c, 0x69, 0x6e, 0x67, 0x32, 0x64, 0x5f, 0x31, 0x2f, 0x4d,
  0x61, 0x78, 0x50, 0x6f, 0x6f, 0x6c, 0x00, 0x00, 0xa0, 0xd3, 0xff, 0xff,
  0xc2, 0xfe, 0xff, 0xff, 0x00, 0x00, 0x00, 0x01, 0x24, 0x00, 0x00, 0x00,
  0x18, 0x00, 0x00, 0x00, 0x04, 0x00, 0x00, 0x00, 0xb4, 0xfe, 0xff, 0xff,
  0x01, 0x00, 0x00, 0x00, 0x01, 0x00, 0x00, 0x00, 0x00, 0x00, 0x00, 0x01,
  0x01, 0x00, 0x00, 0x00, 0x0c, 0x00, 0x00, 0x00, 0x03, 0x00, 0x00, 0x00,
  0x0b, 0x00, 0x00, 0x00, 0x07, 0x00, 0x00, 0x00, 0x09, 0x00, 0x00, 0x00,
  0x2e, 0xd4, 0xff, 0xff, 0x10, 0x00, 0x00, 0x00, 0x0d, 0x00, 0x00, 0x00,
  0x1c, 0x00, 0x00, 0x00, 0x2c, 0x00, 0x00, 0x00, 0x04, 0x00, 0x00, 0x00,
  0x01, 0x00, 0x00, 0x00, 0x15, 0x00, 0x00, 0x00, 0x01, 0x00, 0x00, 0x00,
  0x10, 0x00, 0x00, 0x00, 0x0c, 0x00, 0x00, 0x00, 0x74, 0x66, 0x6c, 0x2e,
  0x63, 0x6f, 0x6e, 0x76, 0x5f, 0x32, 0x64, 0x31, 0x00, 0x00, 0x00, 0x00,
  0x74, 0xd4, 0xff, 0xff, 0x00, 0x00, 0x0e, 0x00, 0x1a, 0x00, 0x08, 0x00,
  0x0c, 0x00, 0x10, 0x00, 0x07, 0x00, 0x14, 0x00, 0x0e, 0x00, 0x00, 0x00,
  0x00, 0x00, 0x00, 0x05, 0x01, 0x00, 0x00, 0x00, 0x3c, 0x00, 0x00, 0x00,
  0x30, 0x00, 0x00, 0x00, 0x14, 0x00, 0x00, 0x00, 0x00, 0x00, 0x0e, 0x00,
  0x18, 0x00, 0x17, 0x00, 0x10, 0x00, 0x0c, 0x00, 0x08, 0x00, 0x04, 0x00,
  0x0e, 0x00, 0x00, 0x00, 0x03, 0x00, 0x00, 0x00, 0x03, 0x00, 0x00, 0x00,
  0x03, 0x00, 0x00, 0x00, 0x03, 0x00, 0x00, 0x00, 0x00, 0x00, 0x00, 0x01,
  0x01, 0x00, 0x00, 0x00, 0x0b, 0x00, 0x00, 0x00, 0x01, 0x00, 0x00, 0x00,
  0x0a, 0x00, 0x00, 0x00, 0x46, 0xff, 0xff, 0xff, 0x00, 0x00, 0x00, 0x11,
  0x01, 0x00, 0x00, 0x00, 0xda, 0xd4, 0xff, 0xff, 0x10, 0x00, 0x00, 0x00,
  0x0c, 0x00, 0x00, 0x00, 0x1c, 0x00, 0x00, 0x00, 0x40, 0x00, 0x00, 0x00,
  0x04, 0x00, 0x00, 0x00, 0x01, 0x00, 0x00, 0x00, 0x15, 0x00, 0x00, 0x00,
  0x01, 0x00, 0x00, 0x00, 0x08, 0x00, 0x00, 0x00, 0x20, 0x00, 0x00, 0x00,
  0x73, 0x65, 0x71, 0x75, 0x65, 0x6e, 0x74, 0x69, 0x61, 0x6c, 0x2f, 0x6d,
  0x61, 0x78, 0x5f, 0x70, 0x6f, 0x6f, 0x6c, 0x69, 0x6e, 0x67, 0x32, 0x64,
  0x2f, 0x4d, 0x61, 0x78, 0x50, 0x6f, 0x6f, 0x6c, 0x00, 0x00, 0x00, 0x00,
  0x34, 0xd5, 0xff, 0xff, 0x00, 0x00, 0x0e, 0x00, 0x14, 0x00, 0x00, 0x00,
  0x08, 0x00, 0x0c, 0x00, 0x07, 0x00, 0x10, 0x00, 0x0e, 0x00, 0x00, 0x00,
  0x00, 0x00, 0x00, 0x01, 0x30, 0x00, 0x00, 0x00, 0x24, 0x00, 0x00, 0x00,
  0x10, 0x00, 0x00, 0x00, 0x0c, 0x00, 0x10, 0x00, 0x00, 0x00, 0x04, 0x00,
  0x08, 0x00, 0x0f, 0x00, 0x0c, 0x00, 0x00, 0x00, 0x01, 0x00, 0x00, 0x00,
  0x01, 0x00, 0x00, 0x00, 0x00, 0x00, 0x00, 0x01, 0x01, 0x00, 0x00, 0x00,
  0x0a, 0x00, 0x00, 0x00, 0x03, 0x00, 0x00, 0x00, 0x00, 0x00, 0x00, 0x00,
  0x06, 0x00, 0x00, 0x00, 0x08, 0x00, 0x00, 0x00, 0x00, 0x00, 0x0a, 0x00,
  0x0c, 0x00, 0x07, 0x00, 0x00, 0x00, 0x08, 0x00, 0x0a, 0x00, 0x00, 0x00,
  0x00, 0x00, 0x00, 0x03, 0x01, 0x00, 0x00, 0x00, 0x9e, 0xd5, 0xff, 0xff,
  0x10, 0x00, 0x00, 0x00, 0x0b, 0x00, 0x00, 0x00, 0x1c, 0x00, 0x00, 0x00,
  0x28, 0x00, 0x00, 0x00, 0x04, 0x00, 0x00, 0x00, 0x01, 0x00, 0x00, 0x00,
  0x40, 0x00, 0x00, 0x00, 0x03, 0x00, 0x00, 0x00, 0x08, 0x00, 0x00, 0x00,
  0x0b, 0x00, 0x00, 0x00, 0x74, 0x66, 0x6c, 0x2e, 0x63, 0x6f, 0x6e, 0x76,
  0x5f, 0x32, 0x64, 0x00, 0x88, 0xd5, 0xff, 0xff, 0x7e, 0xd6, 0xff, 0xff,
  0x04, 0x00, 0x00, 0x00, 0x40, 0x00, 0x00, 0x00, 0x91, 0xca, 0x42, 0x3e,
  0xce, 0xa4, 0x55, 0xbd, 0x2c, 0xe8, 0xe2, 0x3e, 0x08, 0xbb, 0x6b, 0xbe,
  0x36, 0xba, 0x20, 0x3e, 0x49, 0xe2, 0x60, 0xbe, 0xa1, 0x53, 0x19, 0xbe,
  0x10, 0xda, 0x6c, 0xbf, 0x98, 0x76, 0xbd, 0x3d, 0xfd, 0x4c, 0xdf, 0x3e,
  0x13, 0x19, 0x3a, 0xbe, 0x49, 0xb3, 0x73, 0x40, 0xdf, 0x8f, 0xd5, 0x3d,
  0x1a, 0x62, 0x9d, 0xbe, 0xbd, 0x72, 0xfe, 0xbe, 0xcf, 0x4b, 0xb1, 0x3e,
  0x26, 0xd6, 0xff, 0xff, 0x10, 0x00, 0x00, 0x00, 0x0a, 0x00, 0x00, 0x00,
  0x10, 0x00, 0x00, 0x00, 0x20, 0x00, 0x00, 0x00, 0x01, 0x00, 0x00, 0x00,
  0x10, 0x00, 0x00, 0x00, 0x0d, 0x00, 0x00, 0x00, 0x73, 0x74, 0x64, 0x2e,
  0x63, 0x6f, 0x6e, 0x73, 0x74, 0x61, 0x6e, 0x74, 0x31, 0x00, 0x00, 0x00,
  0x08, 0xd6, 0xff, 0xff, 0xfe, 0xd6, 0xff, 0xff, 0x04, 0x00, 0x00, 0x00,
  0x20, 0x00, 0x00, 0x00, 0x57, 0xc0, 0x08, 0xc0, 0xa2, 0x0e, 0x32, 0xc0,
  0x4a, 0x56, 0x20, 0xbf, 0xd9, 0x21, 0x23, 0xc0, 0x20, 0x98, 0x03, 0xc0,
  0x00, 0x40, 0xdc, 0xbf, 0x72, 0x62, 0x23, 0xc0, 0x86, 0xbc, 0x3e, 0xc0,
  0x86, 0xd6, 0xff, 0xff, 0x10, 0x00, 0x00, 0x00, 0x09, 0x00, 0x00, 0x00,
  0x10, 0x00, 0x00, 0x00, 0x20, 0x00, 0x00, 0x00, 0x01, 0x00, 0x00, 0x00,
  0x08, 0x00, 0x00, 0x00, 0x0c, 0x00, 0x00, 0x00, 0x73, 0x74, 0x64, 0x2e,
  0x63, 0x6f, 0x6e, 0x73, 0x74, 0x61, 0x6e, 0x74, 0x00, 0x00, 0x00, 0x00,
  0x68, 0xd6, 0xff, 0xff, 0x5e, 0xd7, 0xff, 0xff, 0x04, 0x00, 0x00, 0x00,
  0x00, 0x08, 0x00, 0x00, 0x27, 0xa7, 0x1e, 0x3e, 0xb1, 0xc6, 0xe5, 0xbd,
  0x2e, 0x6c, 0xfa, 0x3d, 0xb0, 0x63, 0xd3, 0x3b, 0x5a, 0x2c, 0x9a, 0xbd,
  0x0f, 0xdd, 0xfa, 0xbc, 0x58, 0x0a, 0x30, 0xbd, 0xef, 0xe5, 0xca, 0xbd,
  0x4a, 0x0f, 0x69, 0x3a, 0x30, 0x09, 0x85, 0xbd, 0xf0, 0xdd, 0x4b, 0xbd,
  0xa0, 0x34, 0xfe, 0xbc, 0xda, 0x14, 0x53, 0xbd, 0x90, 0x85, 0xbb, 0xbd,
  0x8b, 0x89, 0x11, 0xbe, 0xc6, 0x93, 0x74, 0xbd, 0x61, 0x1d, 0x08, 0xbe,
  0x00, 0x1e, 0x2b, 0xbd, 0xb0, 0xd7, 0xef, 0xbc, 0xbb, 0x9d, 0x06, 0xbd,
  0xcf, 0x03, 0xb1, 0x3d, 0xa8, 0xf5, 0x56, 0xbd, 0x2e, 0xb4, 0x57, 0xbd,
  0x0f, 0x58, 0xf8, 0xbc, 0x08, 0xc2, 0x27, 0x3f, 0xff, 0x18, 0xb5, 0xbb,
  0xbd, 0xdb, 0xbb, 0xbd, 0x7e, 0x58, 0xfd, 0x3d, 0x68, 0x60, 0xd3, 0xbc,
  0x21, 0xf1, 0x84, 0xbc, 0xff, 0xc9, 0x8f, 0xbd, 0x09, 0x1b, 0x55, 0xbc,
  0x76, 0x33, 0xcd, 0xbc, 0xa5, 0xbc, 0x82, 0xbe, 0x03, 0xc6, 0x1c, 0xbe,
  0x23, 0x50, 0xfa, 0xbd, 0x6a, 0x3e, 0xb9, 0xbd, 0x56, 0x9c, 0xee, 0xbc,
  0x7e, 0x7c, 0xb6, 0xbd, 0x8d, 0xbf, 0x87, 0xbe, 0xb6, 0x9f, 0x0a, 0x3d,
  0x1a, 0x71, 0x77, 0xbe, 0x01, 0x73, 0xf4, 0x3e, 0x82, 0x32, 0xa0, 0xbe,
  0x07, 0x0f, 0x8b, 0x3e, 0x7b, 0x5f, 0x62, 0x3e, 0xc0, 0xb8, 0x73, 0x3d,
  0xe4, 0xc1, 0x87, 0xbe, 0x56, 0xe9, 0x1a, 0xbc, 0xaf, 0x64, 0x40, 0xbe,
  0x97, 0x03, 0xfb, 0xbd, 0xac, 0x93, 0x6b, 0xbe, 0x74, 0xda, 0x38, 0x3d,
  0x65, 0x92, 0x13, 0x3e, 0xa8, 0x76, 0x48, 0xbd, 0x5c, 0x17, 0x34, 0xbe,
  0xa9, 0x7d, 0x64, 0xbe, 0x53, 0x54, 0xf9, 0xbd, 0x2e, 0xf7, 0x76, 0x3e,
  0x07, 0x42, 0x3b, 0xbd, 0xa6, 0x9e, 0x82, 0xbe, 0x8a, 0x11, 0x85, 0x3e,
  0xd8, 0xc3, 0x1d, 0x3d, 0xc1, 0xb5, 0x25, 0xbe, 0xc2, 0xa8, 0x14, 0xbe,
  0x75, 0x55, 0x21, 0xbf, 0xe5, 0x34, 0x1f, 0xbe, 0x60, 0x73, 0x12, 0xbf,
  0xb0, 0x02, 0xa2, 0xbe, 0x29, 0x30, 0x36, 0xbe, 0xbb, 0xef, 0x8c, 0xbd,
  0xb3, 0xd2, 0x06, 0xbf, 0xaf, 0x7d, 0x22, 0xbe, 0x69, 0x91, 0xf5, 0xbe,
  0x70, 0xd6, 0x0d, 0x3e, 0xb3, 0x31, 0xaa, 0xbe, 0xc1, 0xa1, 0xf3, 0x3d,
  0xd3, 0x2b, 0xef, 0x3d, 0xd2, 0x82, 0xea, 0x3d, 0x3b, 0xcc, 0x0e, 0xbf,
  0x15, 0x7a, 0x18, 0x3d, 0xcd, 0x10, 0xad, 0xbe, 0x51, 0x41, 0x3b, 0x3d,
  0xad, 0x1d, 0x4c, 0xbd, 0xea, 0x54, 0x3a, 0xbd, 0x84, 0x2b, 0xbd, 0xbd,
  0x97, 0xc2, 0xa7, 0x3d, 0xec, 0x11, 0x14, 0xbe, 0xbb, 0x85, 0xf7, 0xbc,
  0x5a, 0x35, 0xa6, 0xbe, 0x41, 0xfc, 0x1c, 0x3e, 0x57, 0x24, 0x61, 0xbd,
  0x19, 0x27, 0x15, 0xbc, 0xad, 0x53, 0x26, 0xbe, 0x2e, 0xa6, 0x4d, 0x3e,
  0xb1, 0x3c, 0x10, 0xbe, 0xd5, 0x24, 0x17, 0xbe, 0xbd, 0x5d, 0x45, 0x3d,
  0x4e, 0xf2, 0x84, 0xbe, 0x75, 0xb8, 0xf2, 0x3d, 0x51, 0x57, 0x65, 0xbd,
  0x1d, 0x9e, 0x15, 0xbf, 0x0d, 0x70, 0xd9, 0xbe, 0x8b, 0x03, 0x4f, 0xbd,
  0x79, 0x5e, 0xda, 0xbe, 0xf3, 0xdf, 0x05, 0xbb, 0xa0, 0x10, 0xbb, 0xbd,
  0xd4, 0x53, 0xa1, 0x3d, 0x51, 0x7f, 0xc3, 0x3d, 0x83, 0x0c, 0xa2, 0xbe,
  0x42, 0x16, 0x4f, 0xbe, 0x2f, 0x3a, 0xad, 0xbe, 0xbc, 0xd4, 0x85, 0xbe,
  0xac, 0xdb, 0x73, 0xbe, 0x2a, 0x54, 0x01, 0x3d, 0x80, 0x50, 0xac, 0xbe,
  0x9a, 0x37, 0xa3, 0xbd, 0xf4, 0xbe, 0x0d, 0xbe, 0x0f, 0xed, 0xd4, 0x3c,
  0x4d, 0x8a, 0xc5, 0xbd, 0x64, 0x81, 0xd5, 0xbc, 0xa7, 0xf7, 0xaf, 0xbb,
  0x03, 0x58, 0x65, 0xbd, 0xe4, 0x36, 0x2a, 0xbd, 0x36, 0x7f, 0xa6, 0x3d,
  0x2f, 0x79, 0x38, 0xbe, 0x1c, 0x66, 0x9f, 0xbe, 0x20, 0xe5, 0xac, 0xbe,
  0x78, 0x19, 0xc5, 0xbd, 0x5f, 0xad, 0x1c, 0x3d, 0x38, 0xa8, 0x8b, 0xbc,
  0xab, 0x88, 0xb4, 0x3e, 0xfc, 0x47, 0x54, 0xbd, 0xeb, 0x73, 0x01, 0x3e,
  0x26, 0x97, 0x17, 0xbd, 0x60, 0xc0, 0x9c, 0xba, 0x3e, 0x26, 0xcc, 0xbd,
  0x6d, 0xac, 0x65, 0xbb, 0x98, 0x0c, 0x9c, 0x3d, 0xe8, 0x55, 0x26, 0xbe,
  0x70, 0x5e, 0x89, 0xbd, 0xf8, 0x65, 0x13, 0x3e, 0x85, 0x5e, 0x96, 0xbc,
  0x9f, 0x75, 0x20, 0xbc, 0x16, 0x16, 0xc7, 0x3d, 0xaa, 0x55, 0x96, 0xbb,
  0x50, 0xa9, 0x8b, 0xbd, 0x5d, 0x4f, 0x59, 0xbe, 0x16, 0x15, 0x66, 0xbc,
  0xe5, 0xb8, 0x31, 0x3e, 0x48, 0x3c, 0xf9, 0xbc, 0x86, 0xe4, 0xd7, 0xbb,
  0xe8, 0x30, 0x2f, 0xbd, 0xb2, 0x16, 0xbb, 0x38, 0x4f, 0xb4, 0x3b, 0xbd,
  0xb0, 0xc4, 0xd3, 0xbd, 0x1f, 0x51, 0xcc, 0x3c, 0xec, 0x8e, 0x73, 0x3e,
  0x75, 0xa7, 0x2f, 0xbd, 0x88, 0xb1, 0x91, 0xbb, 0xe8, 0x91, 0x8f, 0xbe,
  0xf3, 0x5e, 0x9e, 0xbe, 0x15, 0x79, 0x1a, 0x3d, 0x12, 0x32, 0x06, 0xbd,
  0xf0, 0x23, 0x40, 0x3d, 0x28, 0x08, 0xdf, 0xbd, 0xa4, 0x8e, 0xf3, 0x3c,
  0x54, 0x14, 0xa1, 0xbe, 0x5a, 0xe6, 0xc7, 0xbd, 0x2e, 0x98, 0x1d, 0xbe,
  0x51, 0x98, 0x27, 0xbe, 0xb7, 0x06, 0x6b, 0xbe, 0x7e, 0xc5, 0x1c, 0xbe,
  0xa8, 0x82, 0x36, 0xbe, 0xc0, 0x02, 0x41, 0xbe, 0x68, 0x93, 0x82, 0x3d,
  0x16, 0x96, 0x9a, 0xbe, 0xce, 0x25, 0x32, 0xbe, 0x05, 0xb6, 0x47, 0xbe,
  0xd1, 0x10, 0x5d, 0xbe, 0xfb, 0x43, 0x26, 0x3d, 0x9d, 0x4e, 0x9f, 0x3d,
  0x03, 0x43, 0xe1, 0xbd, 0x20, 0x19, 0x87, 0xbd, 0x45, 0xa5, 0x0c, 0xbe,
  0x13, 0xa8, 0x12, 0xbe, 0x5e, 0x17, 0x86, 0x3d, 0x41, 0xb8, 0x17, 0x3d,
  0xe9, 0xd4, 0x88, 0xbc, 0xca, 0x15, 0x9a, 0xbe, 0xf0, 0xe1, 0x55, 0x3d,
  0x08, 0xf1, 0xa3, 0xbe, 0x83, 0xd4, 0xb3, 0x3d, 0x53, 0x62, 0xcd, 0x3d,
  0xa4, 0x1b, 0x54, 0xbe, 0xb1, 0x60, 0x82, 0xbc, 0x85, 0x35, 0x70, 0x3d,
  0x48, 0x8e, 0xd9, 0xbd, 0xf6, 0x35, 0x3a, 0xbe, 0xd1, 0xf1, 0x81, 0xbe,
  0x05, 0xdc, 0x01, 0xbe, 0xd0, 0xec, 0x2e, 0xbe, 0x3a, 0x15, 0x21, 0xbe,
  0xb2, 0x04, 0x6a, 0xbc, 0x6b, 0x4c, 0xad, 0x3d, 0xd8, 0xfb, 0xf6, 0xbd,
  0x55, 0xc7, 0xb3, 0x3c, 0x51, 0xf5, 0x13, 0xbd, 0x81, 0x60, 0x16, 0x3e,
  0x70, 0xed, 0x9d, 0xbe, 0x0c, 0x8b, 0x34, 0xbe, 0x8a, 0xbf, 0x45, 0xbe,
  0xfd, 0x61, 0x5c, 0x3d, 0x15, 0x84, 0x9f, 0xbe, 0x15, 0x28, 0xa9, 0xbe,
  0xd6, 0x90, 0x98, 0xbd, 0x9c, 0x87, 0x0c, 0x3d, 0x5e, 0x15, 0xf2, 0xbd,
  0x14, 0x2f, 0x21, 0x3c, 0x90, 0x61, 0x1d, 0xbe, 0x1c, 0x7c, 0xf7, 0x3c,
  0x5c, 0x04, 0xc7, 0xbe, 0x3d, 0x63, 0xc4, 0xbe, 0x61, 0xe3, 0x6a, 0xbd,
  0x5c, 0xfd, 0xf4, 0x3d, 0x8e, 0x37, 0x2c, 0xbe, 0xd1, 0x79, 0xb5, 0x3e,
  0xf0, 0xf6, 0x96, 0xbc, 0x03, 0x4b, 0xa3, 0xbd, 0x9e, 0x92, 0x9f, 0x3e,
  0x16, 0x6e, 0x1b, 0xbe, 0x68, 0x7d, 0x2b, 0xbe, 0x8b, 0xac, 0xa4, 0x3c,
  0x21, 0xe7, 0xd4, 0xbe, 0x5e, 0x14, 0x66, 0x3e, 0xf6, 0x93, 0x9a, 0xbe,
  0x9a, 0x19, 0x89, 0xbd, 0xb4, 0xa9, 0x58, 0xbd, 0x24, 0xf8, 0x27, 0xbe,
  0x46, 0xce, 0xd1, 0xbe, 0xe0, 0xc0, 0xa4, 0x3e, 0x54, 0x88, 0x4b, 0xbe,
  0x8d, 0x5e, 0x93, 0xbe, 0x01, 0xb7, 0x8b, 0xbe, 0x7f, 0xd3, 0x83, 0x3d,
  0xcb, 0x80, 0x9c, 0x3e, 0x93, 0x1d, 0x9d, 0xbe, 0x6f, 0x89, 0x44, 0xbe,
  0xc2, 0x37, 0xf2, 0x3d, 0xca, 0xcc, 0xc0, 0xbd, 0x28, 0x5f, 0x89, 0x3e,
  0x09, 0x97, 0x30, 0xbe, 0x18, 0xd8, 0x25, 0xbe, 0x00, 0x9f, 0x93, 0x3e,
  0x86, 0x64, 0x64, 0xbe, 0xb6, 0xab, 0x0a, 0xbe, 0x94, 0xbf, 0x0a, 0xbe,
  0x47, 0xc0, 0xa7, 0xbe, 0x35, 0xd4, 0x77, 0xbe, 0xbb, 0xb6, 0xc5, 0xbe,
  0xcc, 0x5e, 0x9f, 0xbe, 0x91, 0xfb, 0x54, 0xbf, 0x00, 0x99, 0xcf, 0xbe,
  0x4c, 0xcc, 0xc8, 0xbe, 0x2c, 0x15, 0x05, 0xbd, 0x93, 0xfa, 0x9d, 0xbc,
  0x1a, 0x22, 0xc3, 0xbd, 0xb1, 0xf5, 0x95, 0x3e, 0x5c, 0x69, 0x85, 0xbb,
  0x0d, 0x2b, 0x74, 0x3d, 0x4e, 0x4b, 0x04, 0xbf, 0x20, 0x55, 0xc4, 0xbc,
  0xcb, 0x31, 0xc5, 0xbe, 0xba, 0xb6, 0xbf, 0x3b, 0x81, 0x61, 0xa0, 0xbe,
  0x61, 0x2b, 0x23, 0x3d, 0xfc, 0x6c, 0x54, 0x3e, 0xf3, 0xe6, 0x12, 0xbf,
  0xfb, 0x20, 0xc1, 0xbe, 0xd8, 0x0c, 0xa7, 0xbc, 0x86, 0xe1, 0x1c, 0xbf,
  0x98, 0x59, 0x73, 0x39, 0x3c, 0xcd, 0xac, 0x3d, 0xff, 0x4b, 0xc1, 0x3d,
  0xfc, 0x5a, 0x39, 0x3e, 0x1f, 0xaa, 0x02, 0xbf, 0xe5, 0x13, 0xd7, 0xbe,
  0x00, 0x35, 0x9a, 0xbc, 0x30, 0x30, 0x71, 0x3e, 0x70, 0xaa, 0x1b, 0xbe,
  0x29, 0x70, 0xb8, 0xbc, 0x25, 0x4a, 0x2d, 0xbd, 0xa0, 0x17, 0x20, 0xbe,
  0x9b, 0xe7, 0xe0, 0xbd, 0x97, 0x99, 0x37, 0xbe, 0x61, 0x4b, 0x0b, 0xbe,
  0x3c, 0xcf, 0xac, 0xbc, 0x3a, 0xa2, 0x9a, 0xbd, 0xe0, 0x6b, 0xb6, 0x3e,
  0xb4, 0x92, 0x82, 0xbd, 0x9e, 0xda, 0xf7, 0x3e, 0x83, 0x19, 0x0e, 0xbe,
  0x20, 0x4e, 0x3c, 0xbe, 0x2b, 0xa9, 0x9f, 0xbd, 0x07, 0x4a, 0x6c, 0xbd,
  0x0a, 0x74, 0xbc, 0xbc, 0xe1, 0xae, 0xe8, 0x3d, 0x37, 0x02, 0xe8, 0x3d,
  0x9f, 0x74, 0x73, 0x3d, 0xd9, 0xda, 0xac, 0xbd, 0x66, 0x8d, 0xef, 0xbd,
  0x4d, 0x6e, 0xbd, 0xbc, 0x6f, 0xac, 0xdd, 0xbd, 0xe5, 0x08, 0x80, 0xbd,
  0xbd, 0xc4, 0x92, 0x3e, 0x85, 0x83, 0x0c, 0x3e, 0xd2, 0xaf, 0x41, 0xbc,
  0x54, 0x17, 0x06, 0xbd, 0xc4, 0xef, 0x44, 0xbd, 0x12, 0xba, 0x62, 0xbd,
  0x71, 0x2b, 0xb6, 0xbe, 0x81, 0x51, 0x17, 0xbe, 0x83, 0xe0, 0x99, 0xbe,
  0xae, 0x14, 0x06, 0xbd, 0x1e, 0xc1, 0x0c, 0xbe, 0xde, 0xd3, 0x79, 0xbe,
  0x1d, 0xa7, 0x53, 0xbe, 0xa4, 0x7d, 0xd8, 0x3c, 0xd1, 0x0f, 0x0d, 0xbd,
  0x61, 0x0c, 0x19, 0xbe, 0xab, 0xa8, 0x1d, 0xbe, 0xd9, 0xfe, 0x25, 0xbe,
  0xca, 0x74, 0x40, 0xbe, 0x06, 0xc2, 0xea, 0xbd, 0x59, 0x68, 0x96, 0xbd,
  0xd6, 0x9e, 0x01, 0xbe, 0x43, 0xc7, 0xb2, 0x3d, 0x63, 0x4b, 0x84, 0xbd,
  0x29, 0xb5, 0xa1, 0xbe, 0x41, 0x16, 0xc3, 0xbe, 0xf7, 0x4f, 0x26, 0xbe,
  0xbe, 0x8c, 0x40, 0xbe, 0xf6, 0xb1, 0xde, 0xbd, 0x9a, 0x3c, 0x90, 0x3c,
  0xf8, 0xa9, 0x3e, 0xbe, 0xd2, 0x3f, 0x55, 0xbe, 0x65, 0xcf, 0x92, 0xbe,
  0x4c, 0xb3, 0x1a, 0x3e, 0xa4, 0x01, 0x74, 0xbd, 0x80, 0x9e, 0x91, 0xbd,
  0xe5, 0xc8, 0xe0, 0xbd, 0x21, 0xa1, 0x61, 0xbe, 0xf0, 0xc3, 0xd8, 0xbe,
  0x62, 0x8e, 0x59, 0x3b, 0xc7, 0x6e, 0x69, 0xbe, 0x49, 0x3a, 0x25, 0x3e,
  0xff, 0xd0, 0xea, 0x3d, 0x24, 0xc9, 0x8f, 0xbf, 0xc6, 0xc7, 0x0c, 0x3d,
  0xbc, 0xda, 0xc7, 0x3c, 0x2f, 0x5f, 0x11, 0xbf, 0x1e, 0x2e, 0x04, 0x3d,
  0x1f, 0x63, 0xcf, 0xbd, 0x9d, 0x0b, 0x30, 0x3d, 0x1e, 0xaa, 0x1d, 0x3e,
  0xde, 0xf9, 0x14, 0xbf, 0x66, 0x67, 0x7d, 0xbb, 0xf6, 0xe5, 0x70, 0x3c,
  0x24, 0x7d, 0xa5, 0x3d, 0xa4, 0x7f, 0x83, 0xbd, 0x60, 0x38, 0xb2, 0x3e,
  0x3c, 0x8d, 0x18, 0xbe, 0x9e, 0x16, 0x44, 0xbe, 0xca, 0x32, 0xca, 0x3c,
  0x24, 0x7a, 0xb9, 0x3d, 0xdd, 0xb2, 0x68, 0xbd, 0x41, 0xce, 0xb8, 0xbe,
  0xb5, 0x3f, 0x04, 0xbf, 0xf2, 0xba, 0xa5, 0xbe, 0x25, 0x30, 0x00, 0xbf,
  0x68, 0xb7, 0x8b, 0xbe, 0x39, 0x86, 0x95, 0xbe, 0x06, 0xa4, 0x8c, 0xbe,
  0x73, 0x74, 0x82, 0xbe, 0x66, 0xba, 0x94, 0x3d, 0x6a, 0xb5, 0x0a, 0xbe,
  0x1f, 0x8b, 0xa9, 0xbc, 0x3e, 0x54, 0x74, 0x3d, 0xd1, 0xfb, 0x83, 0xbe,
  0xee, 0x64, 0x88, 0xbb, 0x2c, 0xaf, 0x90, 0x3d, 0xf3, 0x30, 0x00, 0xbe,
  0x2a, 0x17, 0x47, 0xbd, 0x53, 0x4c, 0xfd, 0xbd, 0xba, 0x5f, 0x51, 0x3e,
  0xc9, 0x79, 0xb1, 0xbc, 0x7a, 0x80, 0x03, 0xbe, 0xf7, 0xcd, 0x9b, 0xbd,
  0x74, 0x35, 0xdf, 0xbd, 0x42, 0x27, 0x00, 0xbe, 0x01, 0xc5, 0x93, 0x3e,
  0x62, 0xc8, 0xc0, 0xbb, 0xdf, 0x81, 0x47, 0x3e, 0x3d, 0x42, 0xbc, 0x3c,
  0x8f, 0xf4, 0x17, 0x3e, 0xe3, 0x66, 0x27, 0xbe, 0x65, 0x0d, 0x82, 0xbe,
  0xca, 0xf8, 0x15, 0xbc, 0x9b, 0x84, 0x42, 0x3e, 0xd1, 0x27, 0x94, 0x3d,
  0x4c, 0x9a, 0x88, 0xbe, 0x5f, 0xa8, 0xfc, 0x3d, 0x1f, 0x87, 0xf6, 0x3d,
  0x98, 0xf7, 0xbb, 0xbe, 0xd0, 0xa4, 0x88, 0xbf, 0x81, 0xb0, 0xf5, 0x3d,
  0xc6, 0x0d, 0x0f, 0xbe, 0x6c, 0x86, 0x86, 0xbe, 0x06, 0xaf, 0xa4, 0xbe,
  0xd8, 0x01, 0x2c, 0xbe, 0x39, 0x63, 0x9e, 0xbe, 0x20, 0x73, 0xc0, 0xbd,
  0x65, 0x0c, 0x04, 0x3d, 0x49, 0x62, 0x9c, 0xbe, 0x37, 0x22, 0xd4, 0xbd,
  0xa1, 0x1e, 0x97, 0xbe, 0xd9, 0x59, 0xc6, 0xbd, 0x2a, 0x7c, 0x56, 0xbe,
  0xc5, 0xbb, 0x2a, 0x3b, 0xea, 0x7e, 0x56, 0xbc, 0x9a, 0xb7, 0xff, 0xbd,
  0x3b, 0x16, 0xa6, 0xbe, 0x9f, 0x54, 0xcd, 0xbd, 0x59, 0xb9, 0x39, 0xbe,
  0x5c, 0xb5, 0xa4, 0xbc, 0xc6, 0xf7, 0x7b, 0xbe, 0xc4, 0x06, 0xbf, 0xbd,
  0x99, 0x3c, 0x3c, 0xbd, 0x04, 0x8f, 0x32, 0x3e, 0x81, 0x87, 0x4c, 0xbe,
  0xd5, 0xdd, 0x2e, 0x3d, 0xe5, 0x95, 0xaf, 0x3b, 0x93, 0x55, 0x69, 0xbe,
  0x4a, 0xc4, 0x3f, 0xbe, 0x14, 0x42, 0x81, 0xbe, 0xe0, 0xbd, 0x0b, 0xbe,
  0x78, 0x85, 0x59, 0xbe, 0x67, 0xf0, 0x70, 0xbd, 0x11, 0xa7, 0xa4, 0xbe,
  0x7b, 0x7f, 0x4a, 0xbd, 0xa8, 0x82, 0xb8, 0xbe, 0x6d, 0xe3, 0x80, 0xbe,
  0x6b, 0xb9, 0xff, 0xbc, 0x2e, 0x51, 0xa2, 0xbe, 0x4e, 0x56, 0x7d, 0xbc,
  0xda, 0x2b, 0x78, 0xbd, 0x4f, 0xf2, 0xa9, 0xbd, 0x7b, 0xb6, 0x41, 0xbd,
  0xcf, 0x16, 0x87, 0xbd, 0x02, 0x6b, 0x44, 0x3e, 0x2d, 0x9f, 0x5f, 0xbe,
  0xe0, 0xe3, 0xac, 0xbc, 0xaa, 0x2c, 0x33, 0x3a, 0x29, 0x55, 0x85, 0xbd,
  0xee, 0xf2, 0xaa, 0x3d, 0x13, 0x7f, 0xe2, 0xbc, 0x42, 0x3a, 0x8e, 0x3e,
  0xbc, 0xd4, 0x18, 0x3e, 0xb6, 0x03, 0x67, 0xbe, 0xff, 0x77, 0x87, 0x3d,
  0x98, 0xe2, 0x97, 0x3e, 0xf9, 0x61, 0x20, 0xbd, 0x6d, 0xd7, 0x11, 0x3e,
  0x40, 0x57, 0x12, 0xbd, 0x42, 0x31, 0x8a, 0x3e, 0x51, 0x98, 0x9d, 0x3d,
  0x8f, 0xdd, 0x9e, 0xbc, 0xee, 0x8d, 0xe7, 0x3c, 0xae, 0x58, 0x3f, 0xbd,
  0x54, 0x8b, 0x3b, 0xbd, 0x7e, 0x72, 0xa3, 0xbe, 0xe6, 0xd4, 0xc4, 0xbd,
  0x45, 0xae, 0x4a, 0xbe, 0x3c, 0x1d, 0xc7, 0x3d, 0xe9, 0xfa, 0x24, 0x3e,
  0x94, 0xaa, 0x45, 0xbe, 0xe0, 0xcd, 0x30, 0xbe, 0x34, 0xfd, 0x89, 0xbd,
  0xe5, 0xec, 0xc9, 0xbe, 0x88, 0x04, 0x41, 0xbd, 0xf6, 0x8b, 0x8d, 0xbe,
  0x9a, 0xc3, 0x9f, 0xbd, 0xcc, 0x5b, 0xcc, 0x3d, 0x07, 0x74, 0xce, 0xbd,
  0xec, 0x2a, 0x9b, 0xbe, 0xa9, 0xc6, 0xc6, 0xbd, 0xa5, 0x8b, 0x08, 0xbe,
  0xa7, 0x99, 0x90, 0xbd, 0xb1, 0xbd, 0x3f, 0xbe, 0x84, 0x28, 0xa4, 0xbe,
  0x49, 0xb4, 0x17, 0xbe, 0x65, 0x3d, 0xbe, 0xbe, 0x8f, 0xea, 0x24, 0xbe,
  0x3f, 0xf0, 0x98, 0xbd, 0x93, 0x06, 0xa7, 0x3d, 0xd0, 0x36, 0x36, 0x3d,
  0x73, 0x32, 0x98, 0x3e, 0xce, 0x8e, 0xf3, 0x3d, 0xb2, 0x0a, 0xa6, 0x3c,
  0x3d, 0x31, 0xff, 0x3d, 0x2d, 0x74, 0xb3, 0x3d, 0xc4, 0x56, 0x30, 0x3d,
  0xc6, 0xde, 0xff, 0xff, 0x10, 0x00, 0x00, 0x00, 0x08, 0x00, 0x00, 0x00,
  0x1c, 0x00, 0x00, 0x00, 0x38, 0x00, 0x00, 0x00, 0x04, 0x00, 0x00, 0x00,
  0x10, 0x00, 0x00, 0x00, 0x04, 0x00, 0x00, 0x00, 0x01, 0x00, 0x00, 0x00,
  0x08, 0x00, 0x00, 0x00, 0x1a, 0x00, 0x00, 0x00, 0x73, 0x65, 0x71, 0x75,
  0x65, 0x6e, 0x74, 0x69, 0x61, 0x6c, 0x2f, 0x63, 0x6f, 0x6e, 0x76, 0x32,
  0x64, 0x5f, 0x31, 0x2f, 0x43, 0x6f, 0x6e, 0x76, 0x32, 0x44, 0x00, 0x00,
  0xc0, 0xde, 0xff, 0xff, 0xb6, 0xdf, 0xff, 0xff, 0x04, 0x00, 0x00, 0x00,
  0x80, 0x01, 0x00, 0x00, 0x0c, 0xca, 0xf5, 0xbd, 0xd9, 0x20, 0x95, 0xbe,
  0x46, 0x3b, 0x82, 0xbe, 0x05, 0x12, 0xe9, 0xbd, 0x76, 0x51, 0x95, 0xbd,
  0x5d, 0x43, 0xa0, 0xbd, 0x13, 0xe2, 0x14, 0xbe, 0x8b, 0x08, 0x88, 0x3e,
  0xec, 0xa4, 0x7f, 0x3e, 0xd3, 0x46, 0x70, 0x3e, 0x18, 0x31, 0x7a, 0x3d,
  0xd8, 0xa5, 0xf3, 0x3d, 0x5f, 0x68, 0xb8, 0x3d, 0xc3, 0x56, 0x2b, 0x3d,
  0x4c, 0xae, 0x8d, 0x3d, 0x88, 0x13, 0x5a, 0x3d, 0x4d, 0x2b, 0xa3, 0xbc,
  0x90, 0x9b, 0xa5, 0x3c, 0xa6, 0xed, 0x13, 0xbc, 0xb3, 0x97, 0x2b, 0x3d,
  0x24, 0x6a, 0xa6, 0x3d, 0x9a, 0x4f, 0xc3, 0xbc, 0x23, 0x3f, 0xff, 0x3d,
  0x20, 0x52, 0x38, 0x3d, 0x35, 0x19, 0x1b, 0x3f, 0x30, 0x02, 0x51, 0x3e,
  0xc2, 0xf4, 0x4a, 0xbe, 0xf8, 0x8d, 0x5e, 0xbd, 0x05, 0x30, 0x8a, 0xbe,
  0x95, 0x02, 0x1f, 0xbe, 0x5f, 0x73, 0x16, 0xbd, 0x73, 0xa8, 0x4f, 0xbe,
  0xd9, 0x91, 0x7b, 0x3d, 0x1e, 0x41, 0xdf, 0xbe, 0x70, 0x9e, 0xa4, 0xbb,
  0x5a, 0xac, 0x13, 0x3e, 0xbc, 0xbc, 0x99, 0xbc, 0x23, 0xb1, 0xde, 0xbc,
  0xc5, 0x55, 0x9a, 0x3c, 0x2f, 0xd4, 0x91, 0x3d, 0xc2, 0xbc, 0x07, 0x3d,
  0x8b, 0xa9, 0x84, 0x3e, 0x07, 0x41, 0x95, 0xbd, 0xc9, 0x09, 0x56, 0x3e,
  0x67, 0xf3, 0xb0, 0xbc, 0xc2, 0x45, 0x35, 0x3e, 0xf3, 0x79, 0x75, 0xbe,
  0xd2, 0xf2, 0xb8, 0xbe, 0xc6, 0x10, 0x8f, 0xbd, 0xfd, 0x90, 0x8e, 0xbe,
  0xe0, 0x79, 0x2b, 0xbe, 0x01, 0xfd, 0x0e, 0xbd, 0xfe, 0xdd, 0x11, 0x3d,
  0x8b, 0x13, 0x34, 0xbd, 0xe1, 0x75, 0x80, 0x3e, 0x7d, 0xc6, 0xd6, 0xbd,
  0xbd, 0x79, 0xdf, 0x3b, 0x31, 0xfd, 0xbf, 0x3e, 0x67, 0x77, 0x87, 0x3e,
  0xf3, 0x94, 0xdf, 0x3c, 0x96, 0xc7, 0x0f, 0xbf, 0x06, 0xdd, 0xb3, 0x3e,
  0xa5, 0xea, 0xed, 0xbc, 0xb6, 0x94, 0x32, 0xbe, 0xee, 0xa3, 0x29, 0x3e,
  0xa3, 0x4a, 0x12, 0xbd, 0x68, 0x74, 0x3f, 0x3e, 0x98, 0xb4, 0xb5, 0xbe,
  0x21, 0xda, 0x0f, 0x3d, 0xd1, 0x53, 0xb3, 0x3e, 0x71, 0x16, 0xc0, 0xbe,
  0x29, 0xf3, 0x31, 0x3d, 0x9b, 0x21, 0x28, 0x3d, 0x70, 0x4e, 0x9b, 0x3c,
  0x6f, 0xb0, 0x48, 0xbe, 0x53, 0xca, 0x2b, 0x3d, 0x07, 0x11, 0x01, 0xbd,
  0xca, 0x60, 0xb8, 0xbd, 0x7c, 0xcf, 0x9e, 0x3a, 0xf9, 0x71, 0xda, 0xbb,
  0xc2, 0xb1, 0x27, 0xbd, 0xec, 0x56, 0x9a, 0xbe, 0xfc, 0x63, 0x96, 0x3d,
  0xd5, 0x04, 0xff, 0xbd, 0x06, 0xa5, 0x21, 0x3d, 0xce, 0x9b, 0x1d, 0xbd,
  0xf0, 0x03, 0x77, 0x3d, 0x63, 0xf0, 0x4a, 0x3d, 0x18, 0xd9, 0x09, 0x3d,
  0x54, 0xd3, 0x9d, 0x3c, 0xfc, 0x53, 0xc3, 0x3c, 0xc9, 0xc4, 0xca, 0x3c,
  0x30, 0x9b, 0xf5, 0x3d, 0xb1, 0x43, 0x5d, 0x3c, 0x23, 0x68, 0x02, 0x3e,
  0x20, 0xab, 0x42, 0x3c, 0x9e, 0xe0, 0xff, 0xff, 0x10, 0x00, 0x00, 0x00,
  0x07, 0x00, 0x00, 0x00, 0x1c, 0x00, 0x00, 0x00, 0x38, 0x00, 0x00, 0x00,
  0x04, 0x00, 0x00, 0x00, 0x08, 0x00, 0x00, 0x00, 0x04, 0x00, 0x00, 0x00,
  0x03, 0x00, 0x00, 0x00, 0x01, 0x00, 0x00, 0x00, 0x18, 0x00, 0x00, 0x00,
  0x73, 0x65, 0x71, 0x75, 0x65, 0x6e, 0x74, 0x69, 0x61, 0x6c, 0x2f, 0x63,
  0x6f, 0x6e, 0x76, 0x32, 0x64, 0x2f, 0x43, 0x6f, 0x6e, 0x76, 0x32, 0x44,
  0x00, 0x00, 0x00, 0x00, 0x98, 0xe0, 0xff, 0xff, 0x8e, 0xe1, 0xff, 0xff,
  0x04, 0x00, 0x00, 0x00, 0x00, 0x01, 0x00, 0x00, 0x03, 0x66, 0x88, 0x3e,
  0x3a, 0x75, 0x92, 0x3d, 0xaf, 0xb1, 0x05, 0x3e, 0xd1, 0x16, 0xe3, 0x3d,
  0xb7, 0x0d, 0xac, 0xba, 0x1e, 0xba, 0x14, 0xbc, 0x9f, 0x8e, 0x07, 0x3e,
  0x25, 0x33, 0xd7, 0x3b, 0xaf, 0x22, 0x79, 0x3d, 0x16, 0xec, 0x95, 0x3d,
  0xe8, 0x0e, 0x5d, 0xbb, 0xfd, 0xb5, 0x67, 0xbe, 0x26, 0x26, 0x28, 0x3e,
  0x16, 0x4d, 0xea, 0x3c, 0x83, 0x29, 0xac, 0x3e, 0x4f, 0x8e, 0x1f, 0x3d,
  0x5e, 0x28, 0x05, 0x3e, 0xd0, 0x23, 0x7d, 0x3d, 0x05, 0x97, 0x85, 0xbe,
  0x0a, 0x63, 0x3b, 0x3e, 0x11, 0x03, 0x9a, 0x3c, 0x0e, 0xb6, 0x86, 0xbe,
  0x31, 0x2e, 0x82, 0x3e, 0x40, 0x13, 0x25, 0x3e, 0xff, 0x45, 0x5d, 0xbd,
  0x1b, 0xd5, 0x66, 0xbd, 0x67, 0xfa, 0xd8, 0x3d, 0x15, 0xa6, 0x35, 0xbe,
  0x97, 0x65, 0x46, 0x3e, 0x87, 0xd9, 0x34, 0x3e, 0x85, 0xd1, 0xa2, 0x3e,
  0xed, 0xb2, 0x73, 0x3e, 0x91, 0x2c, 0x3c, 0x3e, 0xde, 0xd1, 0x2a, 0x3e,
  0x6f, 0xe4, 0x67, 0xbe, 0xa6, 0xe6, 0x97, 0x3d, 0xce, 0xf5, 0x29, 0xbe,
  0xca, 0x4a, 0xf4, 0xbd, 0x48, 0x49, 0x4c, 0x3e, 0x05, 0x93, 0x09, 0x3e,
  0xdb, 0xfa, 0x0e, 0x3d, 0x4c, 0x18, 0x51, 0xbd, 0xf9, 0x46, 0x27, 0x3d,
  0xd9, 0xa1, 0x92, 0xbe, 0xcd, 0x9a, 0x8e, 0x3e, 0xf0, 0xf1, 0x7f, 0x3e,
  0xee, 0x75, 0xa0, 0x3d, 0x51, 0x54, 0x83, 0x3e, 0xf0, 0x45, 0x3c, 0x3d,
  0x98, 0xb4, 0xa1, 0x3d, 0x8f, 0xe6, 0x1e, 0xbe, 0x87, 0xe9, 0x49, 0x3e,
  0xe0, 0xb6, 0xa8, 0xbd, 0x66, 0xb1, 0x48, 0xbe, 0x05, 0xac, 0x8a, 0x3e,
  0x6e, 0x16, 0x06, 0x3e, 0xb7, 0x56, 0xa3, 0x3d, 0x57, 0x27, 0x0f, 0xbd,
  0xf3, 0xd5, 0x99, 0x3d, 0x48, 0xe1, 0x5c, 0xbe, 0x29, 0x59, 0x4a, 0x3e,
  0x20, 0xa1, 0x7d, 0x3e, 0x2b, 0x72, 0xb4, 0x3e, 0xdf, 0xcd, 0x31, 0x3e,
  0xf6, 0xe1, 0xff, 0xff, 0x10, 0x00, 0x00, 0x00, 0x06, 0x00, 0x00, 0x00,
  0x14, 0x00, 0x00, 0x00, 0x30, 0x00, 0x00, 0x00, 0x02, 0x00, 0x00, 0x00,
  0x04, 0x00, 0x00, 0x00, 0x10, 0x00, 0x00, 0x00, 0x19, 0x00, 0x00, 0x00,
  0x73, 0x65, 0x71, 0x75, 0x65, 0x6e, 0x74, 0x69, 0x61, 0x6c, 0x2f, 0x64,
  0x65, 0x6e, 0x73, 0x65, 0x5f, 0x31, 0x2f, 0x4d, 0x61, 0x74, 0x4d, 0x75,
  0x6c, 0x00, 0x00, 0x00, 0xe8, 0xe1, 0xff, 0xff, 0xde, 0xe2, 0xff, 0xff,
  0x04, 0x00, 0x00, 0x00, 0x00, 0x1c, 0x00, 0x00, 0xc3, 0x3e, 0x0a, 0xbe,
  0x92, 0xe4, 0xf1, 0xbe, 0xc7, 0x19, 0xb5, 0xbd, 0x1a, 0x7e, 0x2d, 0xbe,
  0xeb, 0x4d, 0x6f, 0x3d, 0x7e, 0x7e, 0x44, 0x3e, 0x76, 0xa3, 0xd5, 0xbd,
  0xb9, 0x60, 0x89, 0xbe, 0x61, 0xdf, 0xcd, 0xbd, 0x6f, 0x4f, 0xf6, 0xbd,
  0xe0, 0x11, 0xc8, 0xba, 0xa7, 0x59, 0xc9, 0x3f, 0x90, 0xe4, 0x53, 0xbe,
  0x1e, 0x1a, 0x58, 0xbe, 0xad, 0x02, 0x91, 0xbe, 0x81, 0x26, 0x09, 0x3f,
  0xfd, 0xbc, 0xaf, 0xbe, 0xb3, 0xc3, 0x06, 0xbd, 0xda, 0x34, 0x20, 0x3e,
  0xfa, 0x9d, 0x45, 0x3e, 0xc5, 0x27, 0x9a, 0x3d, 0xb8, 0x87, 0x03, 0x3e,
  0x98, 0x2e, 0xfc, 0xbd, 0xb8, 0x20, 0x4a, 0xbd, 0x59, 0xc3, 0xa0, 0x3d,
  0xf4, 0x09, 0xb2, 0xbe, 0xd7, 0x27, 0x66, 0x3e, 0x1a, 0x34, 0x88, 0x3f,
  0x32, 0xd2, 0x6f, 0xbe, 0x1f, 0x6a, 0x2f, 0x3e, 0x65, 0xc4, 0x11, 0xbe,
  0xa4, 0xa0, 0xdc, 0x3e, 0xe4, 0xef, 0x08, 0x3e, 0x0c, 0x8d, 0x48, 0xbd,
  0xd3, 0xcb, 0xfc, 0x3d, 0x05, 0xe4, 0xfc, 0x3c, 0x2a, 0x72, 0x0a, 0x3e,
  0x15, 0x3b, 0x5b, 0xbe, 0xaf, 0x21, 0x15, 0x3e, 0xd3, 0xe9, 0x1e, 0xbe,
  0x4b, 0x88, 0x4a, 0xbd, 0x85, 0xad, 0x04, 0x3d, 0xc5, 0xcc, 0xd2, 0x3d,
  0xc6, 0xf3, 0x3a, 0x3f, 0xd9, 0x0e, 0x87, 0xbc, 0x32, 0xcc, 0x5b, 0xbd,
  0x52, 0x9a, 0x21, 0x3d, 0x7a, 0xee, 0xef, 0x3e, 0x6d, 0x21, 0x8d, 0xbc,
  0x12, 0x03, 0xed, 0x3d, 0xfb, 0x6b, 0x48, 0xbd, 0xce, 0x0a, 0x1a, 0x3e,
  0x47, 0xb2, 0x61, 0x3e, 0x04, 0x29, 0x40, 0xbd, 0x8c, 0x31, 0x73, 0xbe,
  0x85, 0xe8, 0x17, 0xbd, 0x92, 0xb1, 0x31, 0xbe, 0x4b, 0xdb, 0x9f, 0xbd,
  0xde, 0x7e, 0xcb, 0xbd, 0xb6, 0x97, 0x2f, 0x3f, 0xeb, 0x8b, 0x64, 0x3d,
  0x67, 0xd4, 0x85, 0x3c, 0x69, 0x7c, 0x8a, 0x3d, 0xf4, 0xec, 0x36, 0xbe,
  0xfb, 0x73, 0x94, 0x3c, 0x46, 0x19, 0x51, 0xbe, 0xc4, 0xf1, 0x5b, 0xbe,
  0x23, 0x43, 0xb3, 0x3d, 0x93, 0x98, 0x49, 0xbe, 0xea, 0xe6, 0x5d, 0x3d,
  0x9a, 0xa2, 0x2d, 0x3d, 0x7a, 0xb3, 0x41, 0xbe, 0x93, 0x96, 0xab, 0x3c,
  0xbd, 0x1d, 0x59, 0xbd, 0x2f, 0x84, 0x41, 0xbe, 0xf9, 0x86, 0x84, 0x3f,
  0x39, 0x58, 0x4d, 0x3d, 0xb6, 0xcd, 0xbc, 0xbd, 0x20, 0x41, 0x94, 0x3d,
  0x28, 0xcf, 0x47, 0x3e, 0xde, 0x46, 0xdd, 0xbd, 0x80, 0x66, 0x68, 0xbb,
  0x90, 0xd8, 0x4e, 0x3e, 0x6a, 0x3b, 0x2c, 0x3e, 0xf9, 0x1f, 0x46, 0xbf,
  0x10, 0x9c, 0x9a, 0xbd, 0xa2, 0x3a, 0x3a, 0xbe, 0xc2, 0x5e, 0xcb, 0xbd,
  0x52, 0xee, 0x9c, 0xbd, 0x6c, 0xa6, 0xc3, 0xbd, 0x5f, 0x16, 0x02, 0x3c,
  0xbf, 0x51, 0x95, 0x3f, 0x18, 0x04, 0x2a, 0xbe, 0x74, 0x36, 0xa2, 0x3c,
  0x5e, 0x26, 0xd1, 0x3d, 0x2e, 0x86, 0x1c, 0xbd, 0x86, 0xd1, 0x0a, 0xbe,
  0x41, 0x81, 0x9b, 0xbc, 0xff, 0x4f, 0x2d, 0x3f, 0x40, 0x7e, 0xe4, 0x3d,
  0xe3, 0x0b, 0xac, 0xba, 0x05, 0x73, 0x53, 0x3e, 0xb0, 0x85, 0x7d, 0xbd,
  0xbf, 0x38, 0x13, 0xbe, 0xad, 0x71, 0x57, 0x3d, 0xfd, 0x38, 0x26, 0xbe,
  0x83, 0xaa, 0x61, 0x3d, 0x23, 0xd9, 0x49, 0x3d, 0xd8, 0x46, 0x3f, 0xbd,
  0xdd, 0xf0, 0x4b, 0xbe, 0x9f, 0x69, 0xc3, 0x3c, 0xdd, 0x7a, 0x9d, 0x3d,
  0x7a, 0x6b, 0x78, 0xbb, 0xe0, 0xde, 0xf5, 0xbc, 0x13, 0x55, 0xee, 0x3d,
  0x8b, 0x5c, 0xe2, 0x3c, 0xcc, 0xe6, 0xf1, 0x3d, 0x50, 0x1a, 0xf6, 0xbc,
  0x5b, 0x73, 0x57, 0xbe, 0x7c, 0x9e, 0xc1, 0xbd, 0x86, 0x10, 0x9b, 0xbe,
  0x94, 0x50, 0x02, 0xbe, 0x21, 0xe2, 0x1f, 0x3e, 0x38, 0xdc, 0x0f, 0x3d,
  0x94, 0x90, 0x43, 0xbc, 0xfa, 0x23, 0x37, 0x3e, 0x55, 0x25, 0x55, 0xbe,
  0xa7, 0x8d, 0x31, 0xbe, 0x10, 0x7f, 0x12, 0x3d, 0x47, 0x09, 0x76, 0xbd,
  0xdf, 0xfc, 0xe7, 0x3d, 0x4a, 0x49, 0x8a, 0x3d, 0xa5, 0x2b, 0x2e, 0xbc,
  0x83, 0x6b, 0xfd, 0x3a, 0x7f, 0x2b, 0x02, 0x3e, 0x03, 0x5e, 0x80, 0xbd,
  0x58, 0xe8, 0x4d, 0xbd, 0xa3, 0x77, 0x2a, 0x3d, 0x8e, 0xe1, 0xd6, 0xbd,
  0xaf, 0x82, 0x8c, 0xbd, 0xbf, 0x5d, 0xcf, 0x3d, 0xbc, 0x06, 0x40, 0x3d,
  0x30, 0x2a, 0x5f, 0xbe, 0xa1, 0xd9, 0x87, 0x3e, 0x65, 0xda, 0x97, 0x3d,
  0x57, 0xb7, 0x3b, 0xbe, 0x2e, 0xdb, 0x41, 0x3d, 0x7c, 0x4c, 0x1c, 0xbc,
  0x35, 0x22, 0x27, 0xbe, 0x66, 0xbf, 0xbc, 0x3c, 0xc6, 0x34, 0xcd, 0x3d,
  0xac, 0xde, 0x5d, 0xbe, 0xe7, 0x53, 0x57, 0x3e, 0xeb, 0x05, 0x7c, 0xbe,
  0x98, 0x23, 0xd9, 0xbd, 0xdc, 0x17, 0xe6, 0x3d, 0x01, 0x7f, 0x3f, 0x3c,
  0x9e, 0xd6, 0xb7, 0x3c, 0xe5, 0xaf, 0xb5, 0xbe, 0x13, 0x49, 0x95, 0x3e,
  0xcd, 0xb0, 0x80, 0xbe, 0x3c, 0x5a, 0xb4, 0x3d, 0xf9, 0xab, 0x4f, 0xbe,
  0x27, 0xc1, 0x04, 0x3e, 0x30, 0x2d, 0xd7, 0xbd, 0x3a, 0x0e, 0x6c, 0x3d,
  0x9b, 0x13, 0x57, 0xbe, 0x89, 0x93, 0xa3, 0xbd, 0x6d, 0xf7, 0xe7, 0x3d,
  0x86, 0xe3, 0xe4, 0x3c, 0x4b, 0x89, 0x06, 0xbe, 0x5b, 0x40, 0x1f, 0xbd,
  0xf2, 0x0d, 0x87, 0x3d, 0xc4, 0xe1, 0xd2, 0xbd, 0xcf, 0xca, 0xa6, 0xbe,
  0xb0, 0x59, 0xa0, 0x3d, 0x17, 0x45, 0x2c, 0x3e, 0xf3, 0xf8, 0x39, 0x3c,
  0xc5, 0x7e, 0x53, 0xbe, 0x8f, 0x96, 0x42, 0xbe, 0x74, 0x2d, 0x11, 0x3c,
  0x6d, 0x87, 0xfc, 0x3d, 0x81, 0xdb, 0x8d, 0xbc, 0xdd, 0x20, 0x0c, 0xbe,
  0xda, 0x47, 0x7f, 0x3d, 0xaa, 0x7d, 0xdb, 0xbd, 0x69, 0xda, 0x3e, 0x3d,
  0xbc, 0xca, 0x86, 0xbd, 0xa4, 0xa8, 0x0a, 0x3d, 0xcb, 0x19, 0x4a, 0xbe,
  0x21, 0xce, 0x88, 0xbe, 0x62, 0x05, 0xc8, 0x3d, 0x28, 0x9f, 0x0c, 0xbe,
  0x48, 0x34, 0x28, 0xbc, 0xb7, 0x7a, 0xb3, 0x3d, 0xc1, 0x24, 0x2f, 0xbe,
  0xb1, 0x47, 0x3c, 0xbd, 0x53, 0x95, 0x43, 0xbd, 0x8f, 0x58, 0x76, 0xbd,
  0x80, 0x2b, 0x87, 0xbd, 0x79, 0xb6, 0xcc, 0xbc, 0xbb, 0xcc, 0x2e, 0xbe,
  0xe7, 0xeb, 0x3c, 0xbe, 0x85, 0x4c, 0xde, 0xbc, 0x17, 0x6c, 0xe0, 0x3c,
  0xbc, 0x29, 0xf5, 0x3d, 0x81, 0xdd, 0x02, 0xbf, 0x8d, 0x3f, 0xc4, 0xbd,
  0x45, 0x5a, 0x48, 0x3c, 0xcb, 0x95, 0x95, 0xbe, 0xe2, 0xa1, 0x1a, 0x3d,
  0x68, 0x1a, 0xad, 0x3d, 0x21, 0x24, 0x95, 0xbe, 0x9b, 0x89, 0x28, 0xbc,
  0xe0, 0xa0, 0x5b, 0x3d, 0x9b, 0xbc, 0x44, 0xbd, 0x16, 0x4f, 0xb4, 0xbc,
  0x63, 0x5f, 0xef, 0xbd, 0x48, 0xc5, 0x33, 0x3e, 0x88, 0x28, 0xa8, 0x3d,
  0x2f, 0xcf, 0xae, 0xbd, 0xa8, 0xcb, 0x71, 0xbe, 0x7e, 0x94, 0x36, 0xbf,
  0x1d, 0xae, 0xa3, 0xbd, 0xce, 0x16, 0x3b, 0xbe, 0x8d, 0x3d, 0xdc, 0xbd,
  0xbf, 0x5f, 0x1b, 0xbd, 0x33, 0xa5, 0x13, 0x3e, 0x8a, 0x6e, 0xd5, 0xba,
  0x3b, 0xdb, 0x60, 0x3d, 0x4a, 0x21, 0xc3, 0xbb, 0xc3, 0xc3, 0xd6, 0xbe,
  0xb3, 0xaa, 0xf9, 0xbd, 0x55, 0x1f, 0xd8, 0xbd, 0xa4, 0x52, 0x12, 0xbe,
  0x92, 0xba, 0xde, 0x3f, 0x71, 0xfb, 0xe8, 0xbd, 0x1b, 0xa7, 0x32, 0x3e,
  0x69, 0xd3, 0xe0, 0xbe, 0x2d, 0x4c, 0x8e, 0x3e, 0x8a, 0xe6, 0x9a, 0xbd,
  0xc6, 0x1f, 0x96, 0x3d, 0x5f, 0xb7, 0x96, 0x3c, 0x4c, 0x06, 0xab, 0xbd,
  0xf5, 0xd9, 0xc8, 0x3d, 0x0b, 0x6e, 0xfe, 0xbd, 0xd5, 0x6c, 0xcd, 0x3d,
  0x1f, 0xba, 0xd0, 0xbd, 0x53, 0x06, 0x00, 0xbe, 0x77, 0x43, 0x27, 0xbe,
  0x6e, 0xea, 0x90, 0xbd, 0xe1, 0xf2, 0x5f, 0x3f, 0xdb, 0xdd, 0xc5, 0x3c,
  0x3b, 0x9d, 0x34, 0xbd, 0x10, 0xb1, 0x54, 0xbe, 0x0c, 0x33, 0x2c, 0x3e,
  0x31, 0x00, 0x38, 0xbc, 0x3f, 0x24, 0xd4, 0xbd, 0xcc, 0xaf, 0x67, 0x3e,
  0x30, 0x64, 0x54, 0xbe, 0x7d, 0xca, 0xf8, 0x3c, 0x22, 0xce, 0x55, 0x3d,
  0x71, 0xfc, 0x43, 0xbc, 0xcf, 0xf5, 0xa4, 0x3d, 0xa8, 0x82, 0x32, 0x3d,
  0x26, 0x6b, 0x09, 0xbc, 0xd1, 0x89, 0x0d, 0x3c, 0x62, 0x3b, 0x9c, 0x3f,
  0x0d, 0xf8, 0x74, 0x3d, 0x25, 0x97, 0x30, 0x3e, 0x76, 0x84, 0x9d, 0xbd,
  0xa3, 0x87, 0x2e, 0x3e, 0xfa, 0x38, 0x01, 0x3e, 0xd4, 0x2a, 0xd4, 0xbc,
  0x71, 0x9d, 0x1e, 0x3e, 0xec, 0xf0, 0xa8, 0x3d, 0xad, 0x86, 0x1b, 0xbd,
  0x8d, 0x8a, 0x8a, 0x3d, 0x9c, 0x0d, 0x52, 0xbe, 0x0b, 0x41, 0xb0, 0xbd,
  0xf6, 0x11, 0x2c, 0x3d, 0x35, 0x98, 0x23, 0x3d, 0x61, 0x03, 0x7e, 0x3d,
  0x45, 0xdd, 0xb2, 0x3f, 0x71, 0xa1, 0x3f, 0x3d, 0xcd, 0x79, 0x44, 0x3e,
  0x6a, 0xcb, 0x94, 0xbd, 0x13, 0x41, 0x91, 0x3e, 0x92, 0x75, 0x89, 0xbe,
  0x60, 0x46, 0x39, 0xbd, 0x24, 0x05, 0x7f, 0x3e, 0x6c, 0x34, 0xdb, 0xbd,
  0x82, 0x91, 0xc1, 0x3d, 0xf5, 0x44, 0x43, 0xbe, 0x03, 0x57, 0xed, 0x3d,
  0x33, 0x5a, 0x9b, 0xbd, 0x4e, 0xca, 0xe6, 0x3d, 0xc1, 0x91, 0xad, 0xbd,
  0x7c, 0x46, 0x3a, 0x3d, 0x3f, 0xf7, 0xda, 0x3e, 0x85, 0xd2, 0xed, 0xbd,
  0x5a, 0x09, 0xae, 0xbc, 0x71, 0x6b, 0x4d, 0xbe, 0x3b, 0xb6, 0xde, 0x3d,
  0x36, 0xfd, 0xac, 0xbc, 0x41, 0x77, 0xeb, 0xbd, 0x1a, 0xdd, 0xa4, 0x3e,
  0x52, 0x87, 0x45, 0x3d, 0x1f, 0x71, 0xf3, 0x3c, 0xd5, 0x0c, 0x15, 0x3d,
  0x45, 0xdd, 0x02, 0x3d, 0xbf, 0x9e, 0x23, 0xbe, 0x36, 0x2e, 0x46, 0x3c,
  0x80, 0x45, 0x53, 0xbd, 0x09, 0x34, 0xec, 0xbd, 0x34, 0x5b, 0x7a, 0x3f,
  0xcf, 0x57, 0x85, 0xbd, 0x5f, 0x3a, 0x13, 0xbe, 0xe4, 0x73, 0x89, 0xbd,
  0x70, 0x30, 0x92, 0xbe, 0x27, 0x2c, 0x1e, 0xbe, 0xf3, 0xfd, 0x70, 0xbe,
  0xc8, 0xf4, 0xb0, 0x3e, 0x32, 0x22, 0x4c, 0x3c, 0x67, 0x83, 0xbc, 0x3b,
  0x68, 0xb9, 0x9b, 0x3d, 0x1f, 0x41, 0xa1, 0x3d, 0xc3, 0xe4, 0xa4, 0xbd,
  0xfd, 0xe0, 0x05, 0x3d, 0x49, 0x32, 0x60, 0xbc, 0xee, 0xbf, 0x01, 0x3e,
  0x62, 0x68, 0x06, 0xbe, 0x72, 0xcb, 0xed, 0xbd, 0x20, 0x44, 0x56, 0xbe,
  0xf3, 0x72, 0xa0, 0xbe, 0x3b, 0xcc, 0xc0, 0xbd, 0xc2, 0x42, 0x53, 0x3d,
  0x8e, 0x76, 0x01, 0x3d, 0x7b, 0x9b, 0x3d, 0x3e, 0x4a, 0x0d, 0x4f, 0x3e,
  0x73, 0xbf, 0xc9, 0xbb, 0xfc, 0x96, 0x44, 0x3e, 0x4e, 0xcd, 0x9d, 0x3c,
  0x96, 0x54, 0xa9, 0x3c, 0x23, 0x93, 0xae, 0x3e, 0x8c, 0xa0, 0x88, 0x3d,
  0xdf, 0xc7, 0x43, 0x3c, 0xc1, 0xa6, 0xba, 0x3d, 0xe4, 0xa0, 0x00, 0x3c,
  0x8a, 0x85, 0x53, 0x3e, 0xdb, 0xfb, 0xd1, 0xba, 0x84, 0xbb, 0x4f, 0xbc,
  0xad, 0xf0, 0xd5, 0x3d, 0xa6, 0x12, 0xca, 0x3c, 0xba, 0x66, 0xd1, 0x3d,
  0x6d, 0x90, 0x13, 0x3d, 0x6b, 0x48, 0x47, 0x3d, 0x42, 0x93, 0x18, 0xbe,
  0xdd, 0x12, 0xac, 0x3d, 0x13, 0x26, 0x3d, 0x3d, 0x7c, 0xad, 0xcb, 0xbc,
  0x43, 0x42, 0xce, 0xba, 0x76, 0x9a, 0xf0, 0xbd, 0x5e, 0x70, 0x8a, 0x3e,
  0x3d, 0x7d, 0x2e, 0x3d, 0xae, 0x90, 0xb3, 0x3d, 0xfc, 0x7b, 0xb3, 0xbb,
  0x15, 0xe2, 0x80, 0x3e, 0xe1, 0xc6, 0xcd, 0x3e, 0x06, 0x84, 0xa5, 0x3c,
  0xe8, 0x18, 0x74, 0x3e, 0xfd, 0x65, 0xa0, 0xbe, 0x19, 0xce, 0x4a, 0x3d,
  0xf8, 0x62, 0x13, 0xbe, 0xb3, 0xc9, 0x30, 0x3e, 0x54, 0x31, 0xf9, 0xbc,
  0x87, 0x34, 0xa6, 0xbe, 0x25, 0xc6, 0x73, 0x3c, 0xed, 0x8e, 0x0e, 0x3d,
  0xcc, 0x46, 0x93, 0x3e, 0xc3, 0xee, 0x1d, 0x3e, 0x2f, 0xf1, 0x11, 0xbe,
  0xc5, 0x42, 0xa4, 0xbc, 0x8e, 0x98, 0x5f, 0xbd, 0xfb, 0x49, 0x65, 0x3e,
  0xdc, 0x81, 0x0c, 0xbd, 0xfb, 0x14, 0xe5, 0x3d, 0xdf, 0xa2, 0x07, 0x3e,
  0xd3, 0x25, 0x29, 0x3e, 0xe6, 0x69, 0x5a, 0x3a, 0x13, 0x44, 0xf6, 0xbd,
  0x89, 0x9f, 0x0f, 0xbc, 0x6c, 0xf9, 0xca, 0x3c, 0x09, 0xb4, 0x95, 0xbc,
  0xcd, 0x8e, 0x84, 0xbe, 0x9a, 0xc8, 0xef, 0xbd, 0x23, 0x1b, 0xf6, 0x3d,
  0xdf, 0x7a, 0x36, 0x3e, 0x38, 0xb9, 0xa3, 0xbb, 0x2f, 0x07, 0x9a, 0xbd,
  0xdd, 0x22, 0xa4, 0x3d, 0x93, 0x07, 0x9b, 0xbb, 0x51, 0x8f, 0x26, 0x3e,
  0x0e, 0xe8, 0x44, 0xbc, 0xba, 0x8c, 0xe8, 0x3d, 0xc1, 0xb7, 0x42, 0xbd,
  0x98, 0xe0, 0xff, 0xbb, 0x3e, 0x63, 0xa8, 0xbd, 0xd9, 0x31, 0xc1, 0xbc,
  0x90, 0xd3, 0xe2, 0x3c, 0xa2, 0xa0, 0x37, 0x3e, 0x48, 0x01, 0xaa, 0x3c,
  0x60, 0x12, 0x7b, 0x3d, 0x21, 0x62, 0x28, 0x3e, 0x6e, 0xe9, 0x00, 0x3d,
  0x3d, 0xf6, 0x94, 0x3d, 0xf0, 0xe8, 0x6f, 0x3d, 0xfe, 0xd5, 0xbb, 0x3c,
  0xf9, 0xae, 0x23, 0x3e, 0x3c, 0x33, 0x69, 0xbd, 0x0f, 0xef, 0x71, 0x3c,
  0x33, 0x10, 0x56, 0x3c, 0x77, 0xec, 0x93, 0x3d, 0x9b, 0x47, 0x5b, 0x3d,
  0x48, 0xab, 0x23, 0xbe, 0x07, 0x83, 0x19, 0x3c, 0x5b, 0xbd, 0x31, 0xbe,
  0xe3, 0x7b, 0x68, 0x3d, 0xd2, 0x33, 0x99, 0x3c, 0x20, 0xe1, 0xae, 0x3d,
  0x1a, 0x08, 0xaf, 0xbc, 0x06, 0x20, 0x80, 0xbd, 0x5a, 0xb5, 0xa8, 0x3d,
  0xae, 0x4e, 0xef, 0x3c, 0x79, 0x5a, 0x11, 0x3f, 0x62, 0x51, 0xa0, 0xbe,
  0x9f, 0x1b, 0x99, 0xbc, 0xd8, 0xc8, 0x81, 0xbd, 0xaf, 0xef, 0x86, 0xbd,
  0x24, 0x87, 0x60, 0x3d, 0x87, 0xba, 0xbf, 0xbd, 0x72, 0x38, 0x00, 0x3d,
  0x4e, 0xc1, 0x37, 0x3d, 0xb7, 0x3f, 0x5b, 0xbe, 0x2f, 0xce, 0x16, 0x3c,
  0x15, 0xa1, 0xc2, 0x3d, 0x0a, 0xed, 0xf6, 0xbc, 0xa4, 0x10, 0xfb, 0x3c,
  0x9c, 0xad, 0xc0, 0x3d, 0x41, 0x98, 0xb2, 0xbd, 0xd0, 0x97, 0x9b, 0xbd,
  0x8a, 0xfa, 0xab, 0xbd, 0x7f, 0xce, 0xeb, 0xbd, 0xee, 0x98, 0xd1, 0x3a,
  0x77, 0x47, 0x28, 0x3e, 0xe0, 0xf7, 0x2c, 0xbe, 0x61, 0x78, 0x02, 0xbc,
  0x99, 0xfc, 0x78, 0x3b, 0x5d, 0x8b, 0x94, 0x3d, 0x01, 0x92, 0x46, 0x3f,
  0x06, 0x77, 0xa4, 0x3d, 0xf8, 0xf9, 0xbb, 0xbd, 0x08, 0xea, 0x33, 0xbd,
  0x6e, 0x11, 0x92, 0x3e, 0x4d, 0xc8, 0x85, 0xbd, 0xe7, 0xa0, 0x0f, 0xbf,
  0xb4, 0x04, 0xa4, 0x3e, 0x13, 0xfa, 0x11, 0x3c, 0x63, 0xf2, 0x49, 0x3e,
  0x67, 0x93, 0x01, 0xbd, 0x76, 0x5e, 0x42, 0x3a, 0x41, 0x53, 0xe1, 0xbe,
  0x16, 0x85, 0xf2, 0xbd, 0x06, 0xa5, 0x8f, 0x3d, 0xf2, 0x1a, 0x4c, 0xbe,
  0x48, 0x05, 0x97, 0x3f, 0x46, 0x34, 0x00, 0x3e, 0x95, 0x88, 0x21, 0x3d,
  0x7c, 0x36, 0x95, 0xbc, 0x37, 0xcc, 0x3e, 0x3d, 0x0e, 0xc8, 0xa5, 0x3d,
  0x3e, 0xb4, 0xaf, 0xbe, 0xcd, 0xed, 0xc9, 0x3e, 0xb0, 0x58, 0x9a, 0x3d,
  0xdc, 0x8c, 0x76, 0x3e, 0xf2, 0x79, 0x95, 0xbd, 0x29, 0x8f, 0xb1, 0x3d,
  0x0f, 0x7c, 0x07, 0xbf, 0x87, 0xbf, 0xe4, 0x3b, 0x9f, 0xe0, 0x9e, 0x3d,
  0xdf, 0xec, 0x62, 0xbe, 0x58, 0x34, 0x79, 0x3f, 0x82, 0x7b, 0xb7, 0xbe,
  0x6a, 0x08, 0xe9, 0x3d, 0xa9, 0x83, 0x45, 0x3d, 0x91, 0xac, 0x37, 0x3e,
  0x3f, 0xf7, 0xa4, 0x3e, 0x2a, 0x20, 0xe2, 0xbc, 0xed, 0x4b, 0xf6, 0xbd,
  0x3a, 0x44, 0xee, 0xbd, 0xa5, 0x8c, 0x2f, 0x3d, 0x2e, 0x61, 0xf0, 0xbd,
  0x31, 0x77, 0x89, 0x3c, 0xdf, 0xb9, 0x25, 0xbe, 0x5d, 0xb1, 0x80, 0x3d,
  0x9f, 0xc5, 0x5e, 0xbe, 0x9b, 0x6f, 0xa9, 0xbd, 0x7e, 0x8c, 0x5b, 0x3f,
  0x3e, 0xab, 0x47, 0xbc, 0xc5, 0xe2, 0xda, 0xbd, 0x6a, 0xf9, 0x9c, 0x3d,
  0x97, 0xa8, 0x3e, 0x3e, 0x99, 0x6c, 0xcf, 0x3e, 0xa0, 0x37, 0x8a, 0xbe,
  0x82, 0xc2, 0xa3, 0x3e, 0xbb, 0x6e, 0x90, 0xbd, 0xcf, 0xfe, 0xfc, 0x3d,
  0xe0, 0xaa, 0x78, 0x3d, 0xc7, 0xaa, 0x9a, 0xbd, 0xc1, 0x9a, 0xa0, 0xbe,
  0x5b, 0x6a, 0x86, 0xbe, 0x04, 0xb4, 0x19, 0xbe, 0xd9, 0x5d, 0x52, 0xbc,
  0x70, 0xde, 0x36, 0x3f, 0x28, 0x7d, 0x9c, 0x3e, 0x6f, 0xd6, 0xbd, 0x3d,
  0x28, 0x9d, 0x9a, 0x3d, 0x16, 0x1a, 0xd1, 0x3e, 0x48, 0x35, 0x3b, 0xbe,
  0xec, 0xac, 0x41, 0xbe, 0x37, 0xcb, 0xe9, 0xbd, 0xed, 0x2d, 0x99, 0xbd,
  0x74, 0x46, 0x32, 0xbe, 0xdf, 0x26, 0x19, 0x3e, 0x5c, 0x38, 0x06, 0x3e,
  0xf0, 0xa2, 0x0b, 0xbf, 0x9b, 0x5b, 0x17, 0xbe, 0x6e, 0x89, 0xcb, 0xbd,
  0x1b, 0x4b, 0x8b, 0xbb, 0xf1, 0x0d, 0x9b, 0x3f, 0xbb, 0xeb, 0x35, 0x3e,
  0x8e, 0x4b, 0x25, 0xbe, 0x56, 0x2e, 0xb3, 0xbd, 0x27, 0x77, 0xca, 0xbd,
  0xc8, 0xdf, 0xa1, 0xbe, 0x61, 0xf7, 0xa2, 0xbb, 0xa7, 0xef, 0xfe, 0x3e,
  0x5c, 0xf7, 0x51, 0x3c, 0x27, 0xee, 0x3c, 0x3d, 0x8c, 0x3f, 0x9e, 0x3c,
  0x15, 0xcb, 0x9a, 0x3d, 0x2a, 0xc9, 0x3e, 0xbe, 0xa2, 0x92, 0x97, 0xbd,
  0xb3, 0x3f, 0xee, 0xbd, 0xb9, 0x66, 0xcf, 0xbd, 0x58, 0x17, 0x61, 0xbe,
  0xc4, 0x81, 0xaa, 0xbe, 0x85, 0x9c, 0x1b, 0xbc, 0xca, 0x6c, 0xdb, 0xbc,
  0xea, 0x77, 0x82, 0xbe, 0x2c, 0x2a, 0x94, 0xbd, 0x51, 0xd0, 0x81, 0x3b,
  0x18, 0x7b, 0x7b, 0xbe, 0x89, 0x60, 0x90, 0xbd, 0xfb, 0xce, 0x1a, 0xbe,
  0xdb, 0xf5, 0x57, 0xbe, 0x29, 0xfb, 0x57, 0x3e, 0x81, 0xde, 0x8c, 0xbe,
  0x76, 0x1e, 0x0e, 0x3c, 0x9a, 0x5d, 0x28, 0xbd, 0xf1, 0x48, 0x44, 0xbe,
  0x16, 0xd8, 0xdc, 0x3f, 0x2e, 0xda, 0x88, 0xbd, 0xe0, 0xf5, 0xe5, 0x3d,
  0x5f, 0x46, 0x1f, 0xbe, 0x44, 0xfd, 0xd8, 0x3d, 0x55, 0x68, 0xe0, 0xbd,
  0xbf, 0xfc, 0x17, 0x3d, 0x55, 0x2c, 0xee, 0xbc, 0xaf, 0xb2, 0xa4, 0x3c,
  0x9a, 0x46, 0x4e, 0xbf, 0xb8, 0x73, 0xc1, 0xbd, 0x91, 0x95, 0xdc, 0x3d,
  0xd2, 0x7c, 0x02, 0x3d, 0xef, 0x9c, 0x8e, 0xbd, 0x13, 0x57, 0x9e, 0xbe,
  0x73, 0x8d, 0xfa, 0xbd, 0x1c, 0x38, 0x89, 0x3f, 0x88, 0x1a, 0xae, 0xbd,
  0xa6, 0x44, 0xdd, 0x3c, 0xe1, 0x2f, 0xb4, 0xbc, 0x70, 0xee, 0xd8, 0x3d,
  0xee, 0x0f, 0x61, 0x3e, 0x54, 0x6f, 0x38, 0x3d, 0xef, 0xf3, 0x17, 0x3e,
  0x32, 0xad, 0xca, 0xba, 0x38, 0x5e, 0x3a, 0x3e, 0x3c, 0x3e, 0xad, 0xbd,
  0xbd, 0xa2, 0xb6, 0xbc, 0x31, 0x48, 0x6b, 0xbc, 0x89, 0x1b, 0x6e, 0x3d,
  0x09, 0x5b, 0xa8, 0xbe, 0xc0, 0x4b, 0x58, 0xbe, 0xeb, 0x33, 0x78, 0x3f,
  0xb0, 0x0d, 0x41, 0x3d, 0x48, 0xbc, 0x2c, 0xbd, 0x40, 0xc2, 0x62, 0xbe,
  0x76, 0xa2, 0x12, 0x3e, 0x92, 0xa8, 0xd4, 0x3b, 0xee, 0xe1, 0x81, 0xbc,
  0xac, 0xd5, 0x8e, 0xbd, 0x5e, 0x8e, 0xab, 0x3d, 0x34, 0xd2, 0x44, 0x3d,
  0x7e, 0x7a, 0xa9, 0xbd, 0x34, 0x59, 0x54, 0xbe, 0xe3, 0xd0, 0x81, 0xbe,
  0x69, 0x9d, 0xa4, 0x3c, 0xe6, 0x43, 0xa2, 0xbe, 0xe4, 0xcf, 0x09, 0xbe,
  0x65, 0x52, 0xf3, 0x3f, 0x0f, 0xb0, 0x11, 0x3d, 0x4d, 0x46, 0x9e, 0xbd,
  0xcb, 0xdd, 0xdc, 0xbd, 0xbc, 0x2f, 0xdf, 0x3e, 0x5c, 0x57, 0x79, 0xbe,
  0xe4, 0xea, 0x7c, 0xbe, 0x38, 0xda, 0x70, 0x3e, 0x25, 0xe7, 0x8a, 0x3d,
  0x53, 0x92, 0x25, 0x3e, 0x25, 0xe0, 0xc4, 0x3d, 0xaf, 0x6a, 0xf4, 0x3c,
  0xbe, 0x1a, 0x9a, 0xbe, 0xe4, 0xd9, 0x38, 0x3e, 0xa0, 0xab, 0x6f, 0xbe,
  0x12, 0xe7, 0x0b, 0xbe, 0xb0, 0x0d, 0xd4, 0x3f, 0xa9, 0x62, 0x1d, 0xbe,
  0x04, 0xbc, 0x49, 0xbe, 0x6c, 0xf6, 0x86, 0xbe, 0x62, 0x3d, 0x86, 0xbd,
  0xa9, 0x4a, 0xcf, 0xbe, 0x75, 0xf8, 0xf8, 0xbd, 0xe8, 0x74, 0x4a, 0x3e,
  0x6f, 0x72, 0x2b, 0x3e, 0x6e, 0x7c, 0xb2, 0x3d, 0x44, 0x2d, 0x69, 0x3d,
  0x91, 0x47, 0x64, 0xbd, 0x1b, 0x69, 0xd6, 0xbd, 0xc5, 0x6f, 0x91, 0x3c,
  0xfe, 0xaf, 0x82, 0xbe, 0x1f, 0x11, 0x69, 0xbd, 0xa5, 0x9a, 0xe6, 0x3f,
  0xa9, 0x3c, 0xe3, 0xbe, 0x33, 0xc9, 0x88, 0x3d, 0xca, 0x4b, 0x5f, 0xbe,
  0x9d, 0xe9, 0x5a, 0xbe, 0x78, 0xa9, 0xd4, 0xbe, 0x70, 0x0d, 0x23, 0xbd,
  0x2d, 0xc7, 0x73, 0x3f, 0x25, 0x93, 0x1e, 0xbc, 0xf3, 0xf5, 0x7f, 0x3d,
  0x44, 0x7a, 0xc4, 0xbd, 0xfa, 0x51, 0xc1, 0x3d, 0x22, 0xaf, 0x4c, 0xbd,
  0xd4, 0xe7, 0x9f, 0x3d, 0x64, 0xc0, 0x5d, 0xbe, 0x09, 0xbc, 0x81, 0xbd,
  0x56, 0x32, 0x7d, 0x39, 0xc0, 0xbe, 0x13, 0xbf, 0x16, 0x19, 0x56, 0x3d,
  0x0b, 0x59, 0x32, 0xbe, 0xe1, 0x1a, 0x3e, 0x3d, 0x40, 0xd7, 0x14, 0xbc,
  0xc5, 0x2d, 0xb1, 0x3d, 0xd2, 0x20, 0x03, 0x3e, 0xb4, 0xf2, 0xd5, 0x3d,
  0xb6, 0x61, 0xfd, 0xbd, 0xaf, 0xea, 0x9a, 0xbd, 0x38, 0xe6, 0x1b, 0x3e,
  0xe6, 0x81, 0xf3, 0x3d, 0xbc, 0xd7, 0x82, 0x3d, 0xd6, 0xe9, 0xcb, 0x3d,
  0x99, 0xe3, 0x6c, 0xbe, 0x5b, 0x16, 0xb2, 0xbe, 0x30, 0xd0, 0x27, 0xbe,
  0x18, 0xa0, 0x28, 0x3e, 0x5b, 0xb5, 0x76, 0xbd, 0x2f, 0x27, 0x60, 0x3e,
  0x9b, 0x19, 0xd5, 0x3e, 0x90, 0x75, 0x64, 0xbd, 0x19, 0xd9, 0x9a, 0xbc,
  0x83, 0x0b, 0x03, 0xbd, 0x6c, 0x22, 0xaa, 0xbd, 0x9a, 0x84, 0x01, 0x3e,
  0xd7, 0x1d, 0x13, 0x3e, 0x0f, 0x27, 0xdc, 0x3d, 0xe3, 0xa9, 0xef, 0xbd,
  0xc0, 0xc2, 0x14, 0xbd, 0x66, 0x3a, 0x24, 0xbe, 0x41, 0x7c, 0x92, 0xbc,
  0x05, 0x94, 0x87, 0x3b, 0xb5, 0x3f, 0xcf, 0xbd, 0x50, 0xb6, 0x34, 0xbc,
  0xa4, 0xd4, 0x68, 0x3e, 0xa7, 0x32, 0x2b, 0x3f, 0x78, 0x6f, 0x72, 0xbd,
  0x50, 0xa4, 0xdd, 0x3d, 0x10, 0x35, 0x43, 0xbe, 0xfd, 0xf1, 0xec, 0xbc,
  0x54, 0x58, 0xd3, 0x3c, 0x11, 0xda, 0xc0, 0x3c, 0x9c, 0x52, 0x8c, 0xbd,
  0x24, 0x08, 0x6a, 0xbd, 0x30, 0x0d, 0x7e, 0x39, 0x4e, 0x55, 0xd9, 0xbd,
  0x41, 0x7a, 0x49, 0x3c, 0x1a, 0x43, 0x7b, 0x3d, 0x0d, 0x19, 0x89, 0x3d,
  0x26, 0xdd, 0x4e, 0x3d, 0x76, 0x5c, 0xb9, 0xbd, 0xbe, 0x49, 0xdf, 0x3e,
  0x69, 0x2b, 0x56, 0xbc, 0xc0, 0xd2, 0xce, 0x3d, 0x5f, 0xf4, 0xc1, 0x3c,
  0x0c, 0x11, 0xdb, 0x3c, 0xcd, 0x46, 0x21, 0xbe, 0x7c, 0x82, 0x2d, 0xbe,
  0x9c, 0x4e, 0xe1, 0xbc, 0x8c, 0x02, 0x35, 0xbe, 0xcf, 0x34, 0x57, 0x3d,
  0x0c, 0x60, 0x2d, 0xbe, 0x19, 0xf7, 0x4f, 0xbd, 0xe7, 0xbd, 0x53, 0x3e,
  0xa0, 0xfe, 0x8e, 0x3d, 0x11, 0x0e, 0xbc, 0x3d, 0xc5, 0x0e, 0x1c, 0xbe,
  0x21, 0xa7, 0x78, 0xbd, 0xcf, 0xa6, 0x92, 0xbc, 0x70, 0x34, 0x8b, 0x3e,
  0x34, 0x2f, 0x8d, 0xbd, 0x03, 0x6f, 0xa7, 0xbd, 0xd2, 0x6e, 0x22, 0x3e,
  0xde, 0xbe, 0xc8, 0x3c, 0xb8, 0x80, 0x22, 0x3d, 0x36, 0x86, 0x56, 0xbd,
  0xce, 0xf1, 0x04, 0x3d, 0x9a, 0x3f, 0xbd, 0xbd, 0x87, 0x6a, 0x83, 0xbd,
  0x9c, 0x99, 0xc1, 0xbc, 0x49, 0xe6, 0xab, 0xbd, 0x3f, 0x88, 0xb9, 0x3d,
  0x59, 0x36, 0x96, 0xbd, 0x3c, 0xbb, 0x8e, 0xbd, 0x31, 0x5e, 0xc6, 0x3d,
  0x9e, 0x1b, 0x66, 0x3e, 0xf1, 0x5d, 0xab, 0x3d, 0x25, 0xc7, 0xc4, 0xbc,
  0xd9, 0xbd, 0x23, 0x3e, 0x1c, 0x5c, 0xcc, 0xbd, 0xc2, 0xc3, 0xad, 0x3b,
  0xcc, 0x1a, 0xa6, 0xbb, 0xd9, 0x96, 0x20, 0x3d, 0xe5, 0x9c, 0x9c, 0x3d,
  0x0a, 0xb2, 0x65, 0xbe, 0xea, 0x3f, 0xdb, 0xbd, 0xb0, 0x31, 0x57, 0xbd,
  0x0b, 0x85, 0x40, 0xbd, 0xc1, 0x87, 0x5d, 0xbd, 0xad, 0x01, 0xcb, 0xbd,
  0xde, 0x6f, 0xa2, 0x3d, 0x10, 0x63, 0x04, 0x3f, 0xec, 0xef, 0xc5, 0xbd,
  0xc1, 0x66, 0x04, 0xbd, 0xf8, 0x54, 0x54, 0x3e, 0x9b, 0xd8, 0xb6, 0x3d,
  0x8c, 0x02, 0x88, 0x3d, 0x96, 0xff, 0xb6, 0x3c, 0xb6, 0x1c, 0xe0, 0x3d,
  0x1c, 0x73, 0x9b, 0xbe, 0xc5, 0x49, 0xde, 0x3d, 0xf7, 0x02, 0x42, 0xbd,
  0x39, 0x12, 0x72, 0x3e, 0x6c, 0x8a, 0x16, 0xba, 0xe6, 0xd7, 0x76, 0x3d,
  0xb2, 0x50, 0x94, 0x3e, 0xe3, 0xf9, 0x48, 0xbe, 0x08, 0x2e, 0x81, 0x3e,
  0x3c, 0xdf, 0x39, 0xbd, 0x25, 0x0b, 0xa1, 0xbd, 0x97, 0x7c, 0x34, 0xbd,
  0xf7, 0x85, 0x35, 0x3d, 0x9e, 0x36, 0x0e, 0xbe, 0x1a, 0xc0, 0xe6, 0x3d,
  0x85, 0xad, 0x1e, 0xbd, 0x03, 0x1c, 0x5d, 0xbe, 0xe0, 0xbb, 0x73, 0x3b,
  0x86, 0x0a, 0x1f, 0x3e, 0xf7, 0xe5, 0x0a, 0x3e, 0x3f, 0x3f, 0xf6, 0xba,
  0x05, 0x0d, 0x43, 0x3e, 0x2b, 0x01, 0x99, 0xbd, 0x6c, 0xa7, 0x11, 0xbe,
  0x72, 0x6b, 0x1b, 0xbe, 0xfd, 0xe1, 0xf4, 0x3d, 0x10, 0x6b, 0x41, 0xbd,
  0xda, 0x44, 0x32, 0xbe, 0x6c, 0x7b, 0x0f, 0xbe, 0x6b, 0x80, 0x6b, 0xbd,
  0x1e, 0x6d, 0x91, 0xbd, 0xdf, 0xdc, 0x2d, 0x3e, 0xaa, 0x78, 0xdf, 0xbc,
  0xc8, 0x26, 0x0d, 0xbe, 0x39, 0xb1, 0x8f, 0x3d, 0xcc, 0xab, 0x95, 0x3c,
  0x42, 0x20, 0xba, 0x3d, 0xcc, 0xac, 0x4b, 0x3e, 0x00, 0x98, 0x7e, 0xbe,
  0x44, 0x37, 0xce, 0xbd, 0x5c, 0xdb, 0xee, 0x3d, 0x65, 0x15, 0x4e, 0xbe,
  0x30, 0x7b, 0x89, 0x3c, 0xff, 0xb5, 0xcf, 0x3d, 0x81, 0xdc, 0x31, 0xbe,
  0xf9, 0x78, 0xb0, 0xbc, 0x7a, 0x06, 0xa2, 0x3d, 0x9c, 0x6f, 0x83, 0xbe,
  0x61, 0x58, 0xda, 0x3d, 0xec, 0x3e, 0x2e, 0x3b, 0x4a, 0x27, 0xbc, 0xbe,
  0x5d, 0x38, 0xbc, 0xbd, 0x65, 0xd6, 0x4d, 0x3e, 0x87, 0xac, 0x9e, 0xbd,
  0x39, 0x69, 0xab, 0xbe, 0x89, 0xea, 0x9c, 0xbc, 0x8f, 0x60, 0xe0, 0x3d,
  0xd9, 0x8b, 0x0e, 0x3d, 0x2f, 0x3f, 0x97, 0xbc, 0xe6, 0xa3, 0x40, 0x3e,
  0xb3, 0x21, 0x01, 0xbe, 0x34, 0x93, 0xfa, 0xbd, 0xbd, 0x87, 0x96, 0x3e,
  0x1f, 0x1e, 0xca, 0xbe, 0xe2, 0x61, 0x5f, 0xbc, 0x57, 0xcf, 0x8b, 0xbe,
  0x37, 0xd2, 0xa4, 0xbd, 0x77, 0x2e, 0x29, 0x3e, 0xc5, 0xd4, 0x11, 0xbe,
  0x73, 0x9f, 0x4f, 0xbe, 0xcf, 0x75, 0xdd, 0xbd, 0xa4, 0x15, 0xec, 0x3d,
  0x1c, 0x3c, 0x2a, 0x3e, 0x21, 0xe3, 0x03, 0xbe, 0xe3, 0x65, 0x27, 0xbd,
  0xfa, 0x96, 0xd7, 0x3d, 0xfc, 0x23, 0xef, 0x3d, 0x3e, 0x3b, 0x88, 0x3d,
  0x73, 0x94, 0xd2, 0xbd, 0xbb, 0xac, 0xa6, 0xbe, 0xe9, 0x1c, 0x4a, 0xbe,
  0xa4, 0x4e, 0x29, 0xbe, 0x93, 0x0b, 0xc0, 0xbe, 0x14, 0xc6, 0x25, 0x3e,
  0x07, 0xda, 0x68, 0xbe, 0x97, 0x2d, 0xfc, 0x3d, 0x7b, 0xa5, 0xc0, 0x3d,
  0x91, 0xf8, 0x51, 0xbe, 0xb7, 0x7b, 0xe6, 0xbd, 0x9c, 0x5d, 0x7a, 0xbd,
  0xdb, 0x74, 0xb3, 0xbd, 0x8b, 0x2d, 0x35, 0x3d, 0x1c, 0x5d, 0x1d, 0xbe,
  0x91, 0x56, 0x6f, 0x3d, 0x31, 0xfd, 0x89, 0x3d, 0x0e, 0x2c, 0x87, 0xbe,
  0x81, 0x11, 0x16, 0xbd, 0xe3, 0xbe, 0x0c, 0x3e, 0xc2, 0x9f, 0xc2, 0xbd,
  0xe4, 0xad, 0x55, 0x3d, 0x07, 0xf5, 0x8a, 0x3c, 0x8a, 0xb1, 0x0a, 0x3e,
  0x43, 0xc2, 0x7f, 0x3d, 0xc0, 0xa5, 0x16, 0x3b, 0xf3, 0x8b, 0x5e, 0xbd,
  0x8a, 0x12, 0xb1, 0x3d, 0xe5, 0x5b, 0x8f, 0x3c, 0xc9, 0xa5, 0x3d, 0xbe,
  0x4d, 0x3e, 0x18, 0xbe, 0x68, 0x30, 0x41, 0xbe, 0xb1, 0x75, 0x13, 0xbe,
  0xc9, 0xa2, 0x84, 0x3d, 0x2f, 0x50, 0x29, 0xbd, 0x9e, 0xea, 0xaa, 0xbd,
  0x5a, 0x57, 0x00, 0x3e, 0x98, 0xcd, 0xf2, 0x3c, 0xd1, 0x18, 0xb1, 0xbc,
  0x87, 0xa4, 0xb8, 0xbe, 0x2a, 0x70, 0x17, 0xbe, 0xcd, 0x09, 0x4c, 0xbe,
  0x10, 0xe3, 0x11, 0x3e, 0xe0, 0xca, 0x61, 0xbe, 0x15, 0xd9, 0xbd, 0xbe,
  0x4d, 0x12, 0x1b, 0xbe, 0xc5, 0x18, 0x41, 0xbe, 0x36, 0x35, 0x96, 0x3d,
  0xa7, 0xee, 0xa5, 0xbd, 0xbd, 0x37, 0xfe, 0xbd, 0xda, 0xd6, 0x0c, 0x3e,
  0x2a, 0xd8, 0xca, 0x3c, 0x4c, 0x29, 0xb2, 0xbd, 0xe1, 0x44, 0x54, 0xbe,
  0x05, 0x82, 0xab, 0xbe, 0xb2, 0xe8, 0x25, 0x3e, 0x32, 0xca, 0x99, 0xbd,
  0x44, 0x3b, 0xaa, 0x3d, 0xef, 0x9e, 0xca, 0xbc, 0x89, 0x09, 0x26, 0xbe,
  0x7f, 0x36, 0x28, 0xbe, 0xea, 0xd0, 0xe8, 0x3d, 0x61, 0xc6, 0xf5, 0x3d,
  0x20, 0xa4, 0x07, 0xbe, 0x6d, 0xe4, 0x95, 0xbd, 0x35, 0xd4, 0x77, 0xbd,
  0x9a, 0x99, 0x0c, 0x3e, 0x46, 0x85, 0xc8, 0xbc, 0x0c, 0x05, 0xe6, 0x3c,
  0xcb, 0x43, 0x61, 0x3d, 0x4a, 0x77, 0x67, 0xbe, 0x58, 0x6c, 0xf8, 0xbd,
  0x48, 0xa7, 0x70, 0xbe, 0xa4, 0xc9, 0x0d, 0xbe, 0x39, 0x15, 0xfa, 0xbd,
  0xde, 0x6b, 0xe5, 0xbd, 0x48, 0x72, 0x31, 0xbe, 0x2f, 0xae, 0xcb, 0x3d,
  0xa5, 0xf7, 0xd5, 0x3d, 0x7c, 0x91, 0x86, 0xbe, 0x60, 0x84, 0xf8, 0x3d,
  0x63, 0xbe, 0xbd, 0xbd, 0x05, 0x49, 0xef, 0x3d, 0xf3, 0xfe, 0xee, 0xbc,
  0x82, 0xf4, 0x20, 0xbe, 0x23, 0x7c, 0x0a, 0xbe, 0xd5, 0x60, 0x42, 0xbe,
  0x1e, 0x5c, 0x48, 0x3e, 0x6a, 0x4c, 0xab, 0xbd, 0x1f, 0x43, 0x04, 0xbd,
  0x36, 0xb7, 0x40, 0xbc, 0x88, 0x2f, 0xb3, 0x3c, 0x8e, 0x22, 0xe5, 0xbd,
  0x7a, 0xc8, 0xce, 0x3d, 0xc3, 0x31, 0x01, 0x3d, 0xd9, 0x23, 0xe8, 0xbd,
  0x83, 0xfd, 0x5e, 0xbe, 0xa3, 0x2b, 0x27, 0xbe, 0x80, 0x5e, 0xe6, 0x3c,
  0x6a, 0x79, 0xec, 0xbc, 0x85, 0xdd, 0x0e, 0xbd, 0x51, 0x1c, 0x46, 0xbe,
  0x38, 0x0b, 0x84, 0xbe, 0xee, 0x46, 0x2e, 0xbe, 0x3e, 0xf6, 0x46, 0xbe,
  0x06, 0xf0, 0x82, 0xbe, 0xc0, 0x44, 0x3d, 0xbe, 0x7e, 0xa1, 0x3d, 0xbe,
  0x56, 0xc1, 0x0f, 0xbe, 0x76, 0x93, 0x16, 0xbe, 0x6f, 0x2c, 0xce, 0x3d,
  0x58, 0x68, 0xfa, 0x3d, 0x24, 0xa7, 0xbd, 0x3d, 0x09, 0x75, 0xb8, 0xbd,
  0xca, 0x25, 0x90, 0xbd, 0x77, 0xd7, 0x15, 0xbc, 0x2d, 0xed, 0x6d, 0xbe,
  0xa3, 0xd9, 0xef, 0x3d, 0xb7, 0x94, 0x0a, 0xbe, 0x33, 0xed, 0xb7, 0x3d,
  0xa5, 0xd7, 0x70, 0x3b, 0xff, 0x2f, 0xc0, 0x3d, 0x5e, 0x81, 0xa9, 0xbc,
  0xf2, 0xf8, 0x3a, 0x3e, 0x92, 0xe5, 0x4a, 0xbe, 0x1a, 0xa0, 0xd5, 0x3d,
  0xb1, 0x85, 0xbd, 0x3d, 0xab, 0x16, 0x44, 0xbe, 0x19, 0xc7, 0x20, 0x3d,
  0x2d, 0x9e, 0xd5, 0xbe, 0xd3, 0xc6, 0x9b, 0xbd, 0xe7, 0xab, 0xdb, 0x3d,
  0xf8, 0xe7, 0x46, 0xbe, 0x8e, 0x25, 0xff, 0x3c, 0xcc, 0xaa, 0x3a, 0xbe,
  0x4b, 0x80, 0xcc, 0x3d, 0xd0, 0xd6, 0x51, 0xbe, 0x24, 0x76, 0x6d, 0xbe,
  0x3e, 0x84, 0x8f, 0xbd, 0x41, 0x47, 0x9d, 0xbd, 0x9c, 0x04, 0x8e, 0xbe,
  0x1f, 0x82, 0xc5, 0xbd, 0xcf, 0xc4, 0xc3, 0x3c, 0x2f, 0xe4, 0xd5, 0xbc,
  0xad, 0x5e, 0xa5, 0xbb, 0x7c, 0x7f, 0xd0, 0xbd, 0x6a, 0x9f, 0x66, 0x3d,
  0xc5, 0x4c, 0x32, 0xb7, 0x05, 0x9d, 0x31, 0xbe, 0xed, 0xc5, 0x6a, 0xbe,
  0xd0, 0xe2, 0x8e, 0xbe, 0x00, 0xff, 0xc7, 0xbb, 0xb3, 0x4c, 0x9f, 0xbe,
  0x30, 0xa0, 0x1e, 0xbd, 0xa3, 0xb3, 0x98, 0x3d, 0xa2, 0x61, 0x23, 0x3e,
  0xa9, 0x28, 0x1a, 0xbd, 0xe2, 0x45, 0x84, 0xbd, 0x84, 0xb2, 0x9e, 0xbd,
  0x2c, 0x2d, 0xa4, 0xbe, 0x27, 0x87, 0x11, 0x3d, 0xc3, 0x63, 0xf2, 0xbd,
  0x2c, 0x00, 0x09, 0xbe, 0x14, 0x5b, 0x90, 0x3f, 0x3b, 0x8a, 0x87, 0xbe,
  0x0c, 0x06, 0x03, 0x3d, 0xd8, 0x60, 0x9f, 0xbe, 0xec, 0xcc, 0xcd, 0x3c,
  0xe2, 0x30, 0xd5, 0xbe, 0x1f, 0x36, 0x31, 0xbe, 0xfd, 0xb0, 0xf6, 0x3e,
  0xd8, 0xee, 0x21, 0xbe, 0xd5, 0x73, 0x6e, 0x3e, 0xd7, 0xf8, 0x00, 0xbe,
  0xcc, 0xe7, 0xe6, 0xbd, 0x98, 0x79, 0x9a, 0xbd, 0x5f, 0x3e, 0x92, 0xbc,
  0x3e, 0x81, 0x55, 0xbe, 0x0b, 0xef, 0x36, 0xbe, 0xbe, 0x5d, 0x7b, 0x3f,
  0xa3, 0x9d, 0x04, 0xbe, 0x8e, 0xb4, 0xff, 0xbd, 0xd9, 0x8e, 0xae, 0xbe,
  0xdb, 0x9c, 0xb4, 0x3e, 0x7f, 0x4f, 0xb0, 0xbd, 0xab, 0x1e, 0x1b, 0xbe,
  0xd8, 0x32, 0xd7, 0x3e, 0x19, 0xfa, 0xb7, 0xbc, 0x98, 0x29, 0x58, 0x3d,
  0xb1, 0x74, 0xd0, 0x3d, 0xe3, 0x5c, 0xe2, 0x3c, 0x49, 0x40, 0x8e, 0xbc,
  0x27, 0x57, 0x18, 0xbe, 0xdf, 0xa2, 0x00, 0x3e, 0x20, 0x5e, 0x06, 0x3e,
  0x64, 0x4f, 0x7f, 0x3f, 0x70, 0xb5, 0xa6, 0xbb, 0xcb, 0xf0, 0x55, 0x3e,
  0x37, 0xc9, 0x8a, 0xbc, 0x4b, 0x8a, 0x0c, 0x3e, 0x37, 0xdf, 0xc7, 0xbd,
  0x2d, 0xb2, 0xb3, 0xbd, 0x6f, 0xba, 0x0b, 0x3f, 0xc4, 0x8b, 0xa8, 0xbd,
  0x7b, 0x70, 0xcb, 0x3d, 0x78, 0x74, 0x27, 0x3e, 0x26, 0x88, 0xcd, 0xbd,
  0xf9, 0xec, 0xdd, 0x3c, 0x3c, 0x44, 0x24, 0xbe, 0xeb, 0x5c, 0x4b, 0x3e,
  0x1b, 0x49, 0x4a, 0x3e, 0xed, 0x8b, 0x7a, 0x3f, 0x37, 0x8d, 0x46, 0xbd,
  0x45, 0x73, 0x40, 0xbe, 0x84, 0x45, 0xb8, 0xbc, 0xea, 0xec, 0x21, 0xbd,
  0x04, 0xc3, 0x39, 0xbe, 0x64, 0x37, 0x6f, 0xbe, 0x86, 0x29, 0xba, 0x3e,
  0x30, 0x3b, 0xfa, 0xbd, 0x11, 0xe2, 0x82, 0xbd, 0x8a, 0xfb, 0xa9, 0x3d,
  0x17, 0xc3, 0x3d, 0x3d, 0xf0, 0x43, 0x43, 0x3d, 0x7f, 0x8d, 0x1c, 0x3d,
  0xfa, 0x02, 0x3e, 0xbd, 0xd6, 0xd3, 0xa0, 0xbc, 0x57, 0x45, 0x20, 0x3f,
  0xfc, 0x99, 0x07, 0xbd, 0xae, 0x8a, 0x1f, 0xbe, 0x36, 0xc9, 0x83, 0xbd,
  0x4e, 0x2d, 0xd9, 0xbb, 0x7a, 0x5e, 0x24, 0xbf, 0x51, 0x74, 0x9a, 0xbd,
  0x2d, 0x6e, 0x50, 0x3e, 0xf2, 0x0c, 0x8c, 0x3e, 0x04, 0x47, 0x46, 0x3e,
  0xf5, 0xb3, 0x31, 0xbe, 0x72, 0x2b, 0xdc, 0xbd, 0xdb, 0xcc, 0x91, 0xbd,
  0xfa, 0x37, 0x85, 0x3d, 0x68, 0x9c, 0x44, 0x3d, 0x10, 0xd5, 0x70, 0x3d,
  0x49, 0x88, 0x86, 0x3f, 0x84, 0x50, 0xc5, 0xbe, 0x0f, 0xfd, 0x01, 0xbe,
  0x41, 0x87, 0x5d, 0xbe, 0x6c, 0x6f, 0x46, 0xbe, 0x58, 0x90, 0x0d, 0xbe,
  0x3b, 0xae, 0x68, 0xbc, 0x57, 0x2d, 0x22, 0x3f, 0x39, 0x1e, 0xc2, 0x3c,
  0x29, 0xfc, 0x3b, 0xbd, 0xd7, 0x25, 0x67, 0x3d, 0x48, 0xf7, 0xca, 0x3d,
  0x91, 0x64, 0x09, 0xbc, 0xc9, 0x85, 0x9f, 0x3d, 0xa9, 0x82, 0x3d, 0x3d,
  0xee, 0x48, 0x17, 0x3e, 0x8b, 0xe6, 0x63, 0x3d, 0x50, 0xdf, 0x79, 0xbe,
  0x0f, 0x9d, 0x96, 0x3d, 0x92, 0x79, 0x27, 0xbd, 0x0b, 0xf6, 0xcd, 0xbd,
  0x61, 0x88, 0xb5, 0xbe, 0xa8, 0xda, 0x27, 0x3a, 0x2b, 0x5e, 0xa8, 0x3e,
  0xbd, 0x55, 0x6e, 0x3e, 0x32, 0xb4, 0x21, 0xbe, 0x6a, 0x96, 0x85, 0x3d,
  0x8c, 0xca, 0x82, 0x3d, 0x0d, 0x9f, 0x0a, 0xbe, 0x30, 0xde, 0x0b, 0x3e,
  0x8a, 0x4a, 0xea, 0xbd, 0x5e, 0xf6, 0xda, 0xbc, 0x7d, 0xc7, 0x0c, 0x3e,
  0x0c, 0x9b, 0xc4, 0xbe, 0x21, 0x09, 0x3a, 0xbe, 0x74, 0x5a, 0x99, 0xbe,
  0xbc, 0xb4, 0x16, 0xbe, 0x66, 0x21, 0x47, 0xbd, 0x15, 0xa4, 0x43, 0x3e,
  0xba, 0xbf, 0xf7, 0x3c, 0x89, 0x86, 0xfc, 0xbd, 0x90, 0x0c, 0x44, 0xbe,
  0xd8, 0x4f, 0x6f, 0xbe, 0x20, 0xeb, 0x19, 0x3e, 0x00, 0x02, 0xe5, 0xbd,
  0xeb, 0x21, 0x7b, 0x3d, 0x83, 0x21, 0x3b, 0xbe, 0x74, 0x6a, 0x3a, 0x3d,
  0xb5, 0x49, 0xcf, 0xbd, 0xd0, 0xcb, 0x31, 0xbd, 0x4a, 0x31, 0xa2, 0xbd,
  0x6e, 0x11, 0x9f, 0xbe, 0x39, 0x6b, 0x58, 0x3d, 0xbd, 0xfc, 0x84, 0x3e,
  0x47, 0x99, 0x20, 0x3e, 0x6c, 0xd0, 0x22, 0x3b, 0x55, 0xc9, 0x91, 0xbe,
  0xf7, 0x94, 0x1c, 0xbe, 0xfd, 0x6e, 0xed, 0xbd, 0x35, 0x1c, 0x36, 0xbe,
  0xb0, 0x10, 0xd3, 0x3d, 0xb2, 0xe9, 0xcc, 0xbc, 0xab, 0xaa, 0xc4, 0xbc,
  0x0b, 0xb2, 0xc5, 0x3d, 0xa5, 0xcd, 0xf9, 0xbd, 0xc1, 0x2b, 0x60, 0x3b,
  0xbb, 0xf5, 0x5a, 0xbe, 0xec, 0xf2, 0xd1, 0xbd, 0x38, 0x8f, 0x54, 0x3e,
  0x50, 0x60, 0x3b, 0x3e, 0x0e, 0xb0, 0x06, 0x3d, 0xd9, 0x38, 0x3d, 0x3c,
  0x7f, 0xc0, 0xca, 0xbd, 0x2b, 0x24, 0x82, 0xbe, 0x32, 0x52, 0x17, 0xbd,
  0xa4, 0x7d, 0x77, 0x3d, 0x02, 0xec, 0x45, 0xbe, 0x67, 0x62, 0xa2, 0xbd,
  0x45, 0x90, 0xd2, 0xbc, 0x80, 0xc0, 0x1a, 0xbe, 0x8d, 0x69, 0xc8, 0xbb,
  0x61, 0x18, 0x2f, 0x3e, 0x88, 0xa4, 0xf8, 0x3c, 0xa7, 0x4d, 0x91, 0x3d,
  0xaa, 0x7d, 0x5f, 0x3e, 0x63, 0x37, 0xb5, 0x3e, 0xfb, 0x29, 0x9e, 0xbd,
  0xc6, 0x94, 0x24, 0xbe, 0xd2, 0x62, 0xbf, 0x3c, 0x1b, 0xd0, 0x58, 0x3d,
  0x43, 0x54, 0x29, 0xbe, 0x26, 0x34, 0x29, 0x3d, 0x5a, 0x09, 0x37, 0xbe,
  0xb1, 0x7b, 0xad, 0xbe, 0xd2, 0x4d, 0xcd, 0x3c, 0xc1, 0x01, 0xab, 0x3c,
  0x71, 0xb5, 0xd9, 0xbd, 0xe6, 0x7a, 0x5e, 0x3e, 0xad, 0xd7, 0x2f, 0xbe,
  0xbb, 0x62, 0x88, 0x3e, 0x91, 0xb0, 0xcf, 0x3e, 0xdb, 0x54, 0x17, 0x3e,
  0x01, 0xb5, 0x6f, 0xbe, 0x3b, 0x39, 0xed, 0xbb, 0xca, 0xb5, 0x0a, 0xbe,
  0xdc, 0xb6, 0x05, 0xbe, 0x4a, 0x5e, 0x24, 0x3e, 0x19, 0x44, 0x01, 0x3e,
  0x0f, 0x6f, 0xbc, 0xbe, 0x83, 0x81, 0xbf, 0xbe, 0x36, 0x08, 0x0d, 0x3e,
  0x42, 0x1e, 0x60, 0xbd, 0x3a, 0x41, 0x08, 0xbe, 0x6d, 0x34, 0xbb, 0x3d,
  0x95, 0x73, 0x91, 0x3d, 0xcb, 0x5b, 0x13, 0xbb, 0x60, 0xbc, 0x3b, 0x3d,
  0xe2, 0x72, 0x83, 0xbd, 0x12, 0xff, 0x77, 0xbe, 0x31, 0xaf, 0xb8, 0x3c,
  0x12, 0xa7, 0x8a, 0xbe, 0x50, 0xcc, 0xbb, 0xbd, 0x63, 0x21, 0xac, 0x3d,
  0xc7, 0xe4, 0x3a, 0xbd, 0x11, 0x09, 0x91, 0xbe, 0x7d, 0x49, 0x7d, 0xbe,
  0x37, 0x3e, 0x8a, 0x3d, 0x35, 0x88, 0x9e, 0xba, 0x87, 0xdd, 0xcc, 0xbd,
  0x7d, 0xc5, 0x0c, 0x3d, 0xe8, 0xfe, 0x95, 0xbd, 0xa0, 0xc6, 0xfb, 0xbc,
  0xc0, 0x59, 0x6f, 0xbe, 0xdd, 0xed, 0x90, 0x3d, 0xf1, 0x94, 0x56, 0xbd,
  0x75, 0x94, 0xb3, 0x3e, 0xaf, 0x20, 0x36, 0xbe, 0x79, 0xdb, 0xc0, 0xbd,
  0x48, 0x83, 0x16, 0xbe, 0x9a, 0xa6, 0xdc, 0xbd, 0x5b, 0xcd, 0xdc, 0xbd,
  0x0c, 0x2b, 0x07, 0xbe, 0xca, 0xa2, 0xcf, 0x3d, 0x2a, 0x03, 0x9f, 0x3d,
  0xba, 0xe0, 0xc3, 0x3d, 0x5a, 0x6f, 0xe8, 0x3c, 0xcd, 0xc0, 0x33, 0xbe,
  0x5b, 0xf9, 0x88, 0x3c, 0x6d, 0x89, 0x25, 0xbd, 0xe3, 0xa5, 0x88, 0xbe,
  0x93, 0xbc, 0x88, 0xbe, 0x29, 0x2e, 0x36, 0xbe, 0xc0, 0x26, 0x4c, 0xbd,
  0x89, 0x64, 0x05, 0x3e, 0x62, 0xdb, 0x16, 0x3d, 0xf0, 0x4d, 0xc6, 0xbb,
  0x73, 0x60, 0x20, 0xbe, 0xbc, 0x3c, 0xcd, 0xbd, 0xea, 0xc5, 0x0a, 0x3e,
  0xa0, 0xd1, 0xa3, 0xbd, 0x1d, 0xe2, 0xe6, 0xbd, 0x25, 0x12, 0x54, 0xbe,
  0xa4, 0x71, 0xff, 0x3c, 0xab, 0x72, 0xb6, 0x3d, 0xca, 0x15, 0x3c, 0x3b,
  0x61, 0x6f, 0x9f, 0xbe, 0x2d, 0xfb, 0x9c, 0x3d, 0x54, 0xda, 0x45, 0xbb,
  0x41, 0x32, 0x12, 0xbe, 0xea, 0x91, 0x2c, 0x3e, 0xb6, 0xc1, 0x2c, 0xbe,
  0x9f, 0xa4, 0x83, 0xbd, 0xe9, 0x82, 0xfe, 0xbd, 0x36, 0xd5, 0xf3, 0x3d,
  0x2a, 0xf5, 0x68, 0xbe, 0x94, 0x94, 0xd5, 0x3d, 0xb6, 0x76, 0x73, 0x3d,
  0x9e, 0x55, 0xc4, 0xbe, 0x08, 0x46, 0x4e, 0xbe, 0x11, 0x5f, 0x81, 0xbd,
  0x2b, 0xdc, 0xe3, 0x3d, 0xbd, 0xf0, 0xe5, 0x3e, 0x4f, 0x72, 0xed, 0x3d,
  0x1c, 0x6b, 0x9d, 0xbd, 0x7e, 0x33, 0xba, 0x3d, 0xab, 0x46, 0x93, 0xbe,
  0x8d, 0xaa, 0x56, 0xbe, 0x97, 0x6a, 0xf3, 0x3d, 0x84, 0xf0, 0xd5, 0xbd,
  0x9f, 0x41, 0x67, 0x3b, 0x4f, 0x21, 0xf3, 0xbd, 0x27, 0x3d, 0x46, 0xbe,
  0xc9, 0xd2, 0x01, 0xbd, 0xad, 0x59, 0xda, 0xbe, 0x6b, 0xfe, 0xf3, 0x3d,
  0x3d, 0x01, 0x19, 0xbe, 0x39, 0x74, 0x13, 0x3e, 0x58, 0x79, 0xae, 0x3e,
  0xf9, 0xb1, 0x82, 0x3c, 0xfe, 0x33, 0x9f, 0xbe, 0x51, 0x53, 0x8e, 0xbe,
  0x62, 0x7d, 0x46, 0x3d, 0x0e, 0x20, 0x28, 0x3e, 0xfe, 0x83, 0xae, 0x3d,
  0x32, 0x10, 0x56, 0x3d, 0x0f, 0xb2, 0x3f, 0x3e, 0x69, 0xdf, 0x09, 0xbe,
  0x6e, 0xd9, 0x9f, 0xbd, 0xfb, 0x69, 0xd9, 0xbd, 0x22, 0x4c, 0x1c, 0x3e,
  0x53, 0xd1, 0x1e, 0xbe, 0xff, 0x25, 0x03, 0x3e, 0x37, 0x31, 0x19, 0x3f,
  0x1d, 0x04, 0x53, 0x3d, 0x8f, 0x88, 0x90, 0xbe, 0xc3, 0xb0, 0x8d, 0xbe,
  0x85, 0x76, 0x2c, 0x3e, 0xe7, 0xdf, 0x59, 0xbd, 0x93, 0xe9, 0xb1, 0x3d,
  0x9c, 0x50, 0xa9, 0xbd, 0xd1, 0x36, 0x79, 0xbe, 0x46, 0x65, 0x8a, 0xbe,
  0x81, 0x88, 0x07, 0x3e, 0x2e, 0xfd, 0x4c, 0xbe, 0xa0, 0x93, 0x5c, 0xbe,
  0xc1, 0xe6, 0x8f, 0x3e, 0x9d, 0x4c, 0x2c, 0xbd, 0xd8, 0xa0, 0x84, 0xbd,
  0x58, 0x51, 0x4c, 0xbe, 0x30, 0xea, 0x08, 0xbf, 0xdf, 0x45, 0x03, 0xbe,
  0x8c, 0x50, 0xc2, 0xbe, 0xeb, 0xb7, 0x34, 0xbd, 0x1f, 0x09, 0xf4, 0x3c,
  0xa5, 0x4d, 0xef, 0xbb, 0x35, 0x21, 0xf3, 0xbd, 0xa7, 0x48, 0x9a, 0xbe,
  0xe6, 0x75, 0xff, 0xbd, 0x1e, 0xa7, 0xe6, 0xbd, 0x7b, 0x5e, 0x1c, 0xbe,
  0x7b, 0x56, 0x92, 0xbe, 0x14, 0x88, 0x7a, 0xbe, 0x46, 0x90, 0x85, 0xbe,
  0xfa, 0x69, 0x0c, 0xbc, 0xb8, 0xf4, 0xc9, 0xbd, 0x7b, 0xe0, 0x1b, 0xbe,
  0xa5, 0x44, 0x38, 0xbd, 0x1b, 0x4e, 0x38, 0xbd, 0x98, 0xa6, 0x0b, 0xbe,
  0x93, 0x10, 0xb0, 0x3d, 0xb5, 0x8b, 0xea, 0x3d, 0x79, 0x27, 0x5f, 0x3c,
  0x2f, 0x1d, 0x90, 0xbd, 0x4a, 0x59, 0xf1, 0xbc, 0x70, 0x5f, 0x47, 0xbe,
  0x1f, 0x03, 0x15, 0x3d, 0x5f, 0x01, 0xc3, 0xbd, 0x8d, 0xc2, 0x49, 0xbd,
  0xc0, 0x7c, 0xaa, 0x3d, 0x2b, 0x8b, 0xe7, 0x3d, 0xd2, 0x69, 0xf6, 0xbd,
  0x1d, 0x8e, 0x06, 0x3b, 0xa0, 0x97, 0x96, 0xbd, 0x8a, 0xc3, 0xce, 0x3c,
  0x26, 0x9d, 0x0d, 0x3e, 0xb6, 0x68, 0x01, 0xbf, 0x29, 0x14, 0x69, 0x3b,
  0xdb, 0x4c, 0x50, 0x3d, 0xd3, 0x7f, 0xe2, 0xbe, 0x47, 0x84, 0x2f, 0x3e,
  0x6f, 0xe7, 0x5c, 0xbe, 0x48, 0x6b, 0x82, 0x3b, 0xa5, 0x8c, 0x5c, 0xbe,
  0xe3, 0x80, 0x23, 0xbd, 0x4b, 0x84, 0x4c, 0xbe, 0x3e, 0x52, 0x06, 0xbf,
  0x82, 0x11, 0x8a, 0x3d, 0xe0, 0xc4, 0xfe, 0x3d, 0xe6, 0x61, 0xe3, 0xbe,
  0xe9, 0x7e, 0x78, 0xbe, 0x5f, 0x4b, 0x8b, 0x3e, 0x0a, 0xe4, 0x9b, 0xbe,
  0x13, 0xe5, 0x2f, 0x3e, 0x15, 0x11, 0x42, 0x3e, 0x09, 0x1c, 0xb5, 0xbe,
  0x9a, 0xa0, 0x1c, 0x3d, 0x75, 0x31, 0xdb, 0xbc, 0x1a, 0x8b, 0x10, 0xbd,
  0x46, 0x3c, 0x64, 0xbd, 0xd7, 0xc1, 0xdc, 0xbb, 0x22, 0x94, 0xa2, 0x3d,
  0x58, 0x29, 0x1b, 0xbf, 0x7b, 0xe1, 0x6f, 0x3e, 0xc5, 0xd3, 0x0f, 0x3e,
  0x0a, 0x8d, 0xa7, 0xbd, 0x25, 0x5a, 0xf4, 0xbd, 0xfb, 0x61, 0xb1, 0x3d,
  0x29, 0x13, 0x18, 0xbe, 0xa4, 0xdc, 0x9d, 0xbd, 0x68, 0x75, 0x43, 0x3e,
  0x34, 0xd0, 0x05, 0x3d, 0xa6, 0x6d, 0xa0, 0x3d, 0xc8, 0x82, 0xc0, 0xbc,
  0xdb, 0x95, 0x29, 0x3e, 0xd2, 0x83, 0x2b, 0x3d, 0xd4, 0x37, 0x1a, 0x3d,
  0xef, 0x69, 0x11, 0x3e, 0x93, 0xd2, 0xa3, 0xbe, 0x89, 0xab, 0xf2, 0xbd,
  0x3f, 0x78, 0xb3, 0x3d, 0x0d, 0x9a, 0x0e, 0xbc, 0xe6, 0xab, 0x3c, 0x3d,
  0x25, 0xa2, 0x14, 0x3e, 0x64, 0x3d, 0x3f, 0xbe, 0xad, 0x4b, 0xa0, 0x3d,
  0x23, 0x05, 0xfb, 0xbd, 0xa8, 0xcf, 0x81, 0x3d, 0x5e, 0x3b, 0x18, 0x3e,
  0xf0, 0xf6, 0x4f, 0xbd, 0xc3, 0xf8, 0x12, 0x3e, 0xd9, 0x26, 0x2d, 0xbe,
  0x7f, 0x66, 0x1e, 0x3e, 0x07, 0x32, 0x0c, 0xbd, 0xe5, 0xec, 0x39, 0xbe,
  0xff, 0x0c, 0x8f, 0x3d, 0xd2, 0x5f, 0x7f, 0xbd, 0x18, 0xab, 0xb7, 0xbd,
  0x3a, 0xa0, 0x13, 0x3d, 0xfd, 0x8b, 0xc6, 0x3e, 0x07, 0x75, 0x7c, 0xbe,
  0xb9, 0xf4, 0x19, 0xbe, 0x7c, 0x24, 0x0f, 0x3c, 0xc3, 0x3c, 0x2b, 0xbc,
  0xdb, 0x14, 0xdb, 0x3d, 0x53, 0xe1, 0x47, 0xbd, 0x45, 0x29, 0x8f, 0xbd,
  0x78, 0xbe, 0x87, 0xba, 0x12, 0x0d, 0xfe, 0x3c, 0xb8, 0x26, 0x40, 0xbe,
  0x73, 0x18, 0x86, 0xbe, 0x09, 0xc4, 0xb6, 0x3d, 0xcb, 0x8a, 0x59, 0x3d,
  0x32, 0x2d, 0xa3, 0xbe, 0xb1, 0x6b, 0x39, 0xbe, 0x73, 0xb8, 0xcd, 0x3d,
  0xc3, 0x1d, 0xad, 0xbe, 0x2b, 0x61, 0x7b, 0x3c, 0x60, 0x2d, 0xc0, 0x3e,
  0x0f, 0xbc, 0x8b, 0xbe, 0x64, 0xdb, 0x3f, 0x3e, 0x78, 0x28, 0x32, 0xbd,
  0xb3, 0x2a, 0xbb, 0xbd, 0x75, 0x1b, 0x33, 0x3e, 0x98, 0x11, 0x6e, 0xbd,
  0x29, 0x57, 0x6e, 0x3d, 0x22, 0x66, 0xb9, 0xbe, 0xc1, 0x88, 0x41, 0x3d,
  0xb2, 0x84, 0x78, 0xbd, 0x9a, 0x8e, 0x18, 0x3e, 0x40, 0xc4, 0xac, 0x3e,
  0xed, 0x9e, 0x06, 0x3e, 0x52, 0x3a, 0x95, 0xbc, 0x66, 0x40, 0x0d, 0x3e,
  0xd2, 0x3f, 0xca, 0xbd, 0x8e, 0x31, 0xb8, 0x3b, 0x9b, 0x22, 0x7d, 0x3e,
  0xe4, 0x0c, 0x66, 0xbd, 0x5f, 0xf4, 0xce, 0x3a, 0x7b, 0xf6, 0xb9, 0xbd,
  0x41, 0x3c, 0x6b, 0xbd, 0x39, 0x55, 0xec, 0xbd, 0x5b, 0x73, 0x88, 0x3d,
  0xc9, 0x6c, 0x91, 0x3e, 0x4f, 0x10, 0xd4, 0xbc, 0x31, 0xb1, 0xbf, 0xbd,
  0x54, 0x62, 0x69, 0x3e, 0x2a, 0x07, 0x6e, 0x3e, 0x9b, 0xf9, 0xec, 0xbd,
  0x38, 0xcc, 0xee, 0x3c, 0x1a, 0xae, 0x53, 0x3d, 0xfa, 0xb7, 0x35, 0x3d,
  0xa6, 0x06, 0xe8, 0x3d, 0xf9, 0x52, 0x20, 0xbc, 0x05, 0x38, 0xbd, 0x3d,
  0xf2, 0x5c, 0xb0, 0x3c, 0x32, 0x7e, 0xa6, 0xbd, 0x34, 0x81, 0x15, 0x3e,
  0xfe, 0xb7, 0x48, 0x3d, 0xaa, 0xb9, 0x80, 0x3d, 0x7b, 0x66, 0xd9, 0x3e,
  0x10, 0xe0, 0xc6, 0xbd, 0x1d, 0x3e, 0x9c, 0x3e, 0x92, 0xc4, 0x3f, 0x3e,
  0x87, 0xc8, 0xf2, 0xbd, 0xd0, 0x74, 0xa0, 0xbd, 0x1f, 0xa5, 0x6a, 0x3e,
  0xdd, 0x45, 0x65, 0xbc, 0xf7, 0xfe, 0x1b, 0xbe, 0x14, 0x19, 0x13, 0x3e,
  0x34, 0x90, 0x8d, 0xbd, 0x74, 0x3f, 0x88, 0xbd, 0x6c, 0x49, 0x81, 0x3e,
  0x38, 0x6c, 0x41, 0x3e, 0xed, 0x9a, 0xde, 0x3d, 0xed, 0xa4, 0xb5, 0x3d,
  0xd6, 0x65, 0xa7, 0xbc, 0xbd, 0x50, 0xbe, 0xbd, 0x85, 0xd7, 0x95, 0x3e,
  0x39, 0x21, 0x48, 0xbd, 0x3c, 0x4c, 0x20, 0xbd, 0x22, 0xfc, 0x9e, 0x3d,
  0xa7, 0x8d, 0xf5, 0x3d, 0x1e, 0xe5, 0x7b, 0xbd, 0x69, 0xd9, 0xe8, 0x3c,
  0x73, 0x0f, 0x3d, 0x3e, 0x8f, 0xa2, 0x9d, 0x3d, 0x87, 0x3f, 0x28, 0x3d,
  0x6b, 0xad, 0xfb, 0xbd, 0x38, 0x23, 0x99, 0xbc, 0x59, 0x88, 0xeb, 0x3b,
  0xae, 0x1c, 0x7f, 0xbe, 0x7c, 0x98, 0x55, 0xbe, 0xbf, 0x57, 0x84, 0xbd,
  0xe0, 0x5b, 0xab, 0x3e, 0x91, 0xa9, 0xc9, 0x3d, 0x97, 0xb8, 0x31, 0xbe,
  0xef, 0xb7, 0xe0, 0x3d, 0x3d, 0xfa, 0xa7, 0xbc, 0xe0, 0x91, 0x16, 0xbd,
  0xbe, 0x29, 0x68, 0x3d, 0x3d, 0xaf, 0x18, 0x3e, 0xd4, 0xda, 0x36, 0xbe,
  0x48, 0xbd, 0x00, 0x3d, 0xd1, 0x0e, 0x6a, 0xbe, 0xb8, 0xf4, 0x0d, 0x3d,
  0xe0, 0x2c, 0xa5, 0x3c, 0x00, 0xd4, 0x30, 0xbd, 0x98, 0x64, 0xf4, 0xbd,
  0xf0, 0x6a, 0x13, 0xbc, 0x41, 0x29, 0xa4, 0x3e, 0x90, 0x0e, 0x68, 0x3d,
  0x0a, 0x8a, 0x5d, 0xbc, 0xce, 0x6f, 0x5f, 0xbd, 0xdc, 0xd2, 0x1f, 0x3d,
  0xc1, 0x04, 0x80, 0x3d, 0xcf, 0x92, 0x0b, 0x3e, 0x62, 0x5b, 0xe3, 0x37,
  0xb3, 0x59, 0x49, 0xbe, 0x0c, 0xd6, 0x0b, 0xbe, 0x86, 0x51, 0xc4, 0xbd,
  0x2d, 0xb2, 0xf4, 0x3d, 0x94, 0x9f, 0xd6, 0x3d, 0xc0, 0xef, 0xbb, 0xbd,
  0xdc, 0x9f, 0x63, 0xbc, 0x0f, 0xd7, 0xc0, 0x3b, 0x17, 0x21, 0xd4, 0x3e,
  0x2a, 0x97, 0x62, 0xbd, 0x9d, 0x79, 0x45, 0xbb, 0x6b, 0x32, 0x73, 0xbd,
  0x00, 0x45, 0x65, 0x3d, 0xa5, 0x79, 0x29, 0x3d, 0xe5, 0x14, 0x20, 0x3d,
  0x14, 0xc4, 0xaa, 0xbd, 0xb3, 0xf8, 0xb2, 0x3d, 0xa8, 0x65, 0xcb, 0x3d,
  0x89, 0x79, 0xd2, 0xbd, 0x8e, 0x3b, 0xb0, 0x3c, 0x8b, 0xb2, 0x3f, 0x3d,
  0xcf, 0x2e, 0x22, 0x3c, 0xca, 0x30, 0x52, 0xbe, 0x20, 0x9b, 0x12, 0x3b,
  0xd1, 0xd4, 0xc0, 0x3e, 0x4b, 0x32, 0x4c, 0x3e, 0xa8, 0xbd, 0x22, 0xbd,
  0x49, 0x78, 0x9e, 0x3e, 0x44, 0xaa, 0x9f, 0x3d, 0x67, 0x30, 0xbf, 0xbc,
  0xaf, 0x65, 0x51, 0x3e, 0x1d, 0x89, 0xd5, 0x3c, 0x8e, 0x0b, 0x0e, 0x3e,
  0x57, 0xae, 0xe5, 0x3e, 0xd2, 0xa6, 0x9b, 0xbe, 0xc6, 0x77, 0xe1, 0x3d,
  0x30, 0x5d, 0xc8, 0xbd, 0xdd, 0xe9, 0xa9, 0x3e, 0x33, 0xb0, 0xf7, 0x3d,
  0x6a, 0xfa, 0x1d, 0x3c, 0xea, 0x84, 0xa9, 0x3e, 0x66, 0xac, 0x34, 0x3e,
  0xfb, 0x92, 0x91, 0x3d, 0xfe, 0x26, 0x80, 0x3c, 0xeb, 0xb6, 0x61, 0x3d,
  0xb2, 0x52, 0xbe, 0x3d, 0x6c, 0xdb, 0x85, 0xbd, 0xba, 0x5a, 0x1a, 0x3d,
  0xd3, 0x88, 0xad, 0xbc, 0x46, 0x93, 0x52, 0x3f, 0x8f, 0x9f, 0x03, 0xbe,
  0xb5, 0x0c, 0xce, 0x3d, 0x45, 0x59, 0xba, 0xbd, 0x3a, 0xfa, 0x10, 0x3e,
  0xc2, 0x00, 0x2b, 0x3f, 0x58, 0xdf, 0xee, 0xbd, 0xa6, 0x13, 0xaf, 0x3e,
  0xb2, 0xab, 0x84, 0x3d, 0x91, 0xd5, 0x13, 0x3e, 0x4d, 0x1c, 0x00, 0xbe,
  0x2d, 0x10, 0x18, 0x3e, 0x60, 0x22, 0x84, 0x3c, 0xba, 0x98, 0x39, 0x3d,
  0x82, 0x34, 0x80, 0x3d, 0x1b, 0xaf, 0xeb, 0xbd, 0x3b, 0x1d, 0x1f, 0x3f,
  0x73, 0x59, 0xe1, 0x3d, 0x60, 0xbc, 0x8c, 0xbd, 0x96, 0x60, 0x84, 0xbd,
  0x16, 0xb5, 0x9d, 0x3e, 0xc2, 0x0a, 0xc0, 0x3c, 0x47, 0x9d, 0xd9, 0xbd,
  0xc0, 0x2c, 0xe5, 0x3d, 0xdb, 0x7a, 0xb2, 0xbd, 0x14, 0x1f, 0xa4, 0x3d,
  0xe2, 0x75, 0x37, 0x3e, 0x18, 0xab, 0x42, 0xbd, 0x89, 0xa6, 0x36, 0xbd,
  0x7e, 0x39, 0x69, 0x3d, 0x00, 0xa0, 0x73, 0x3d, 0x8f, 0x85, 0xc2, 0x3d,
  0x2c, 0x18, 0xc2, 0x3e, 0x55, 0xa5, 0x04, 0xbd, 0x24, 0x0d, 0xb1, 0x3c,
  0xe0, 0xa2, 0x36, 0xbd, 0x9f, 0xcc, 0x89, 0x3d, 0x7c, 0x2d, 0x33, 0xbe,
  0x4c, 0xf5, 0x14, 0xbe, 0x65, 0x92, 0x43, 0x3e, 0xba, 0x05, 0x41, 0x3d,
  0x07, 0xc7, 0x43, 0x3e, 0x0e, 0x1b, 0x51, 0x3e, 0xa5, 0xed, 0x20, 0x3e,
  0x5f, 0x23, 0xc9, 0xbb, 0xb2, 0xd7, 0x98, 0xbb, 0xeb, 0xba, 0x46, 0x3d,
  0x5d, 0x88, 0x69, 0xbd, 0xf7, 0xfe, 0x0a, 0x3f, 0xb0, 0xa1, 0x22, 0xbe,
  0x52, 0x95, 0x9f, 0x3d, 0x0e, 0x7b, 0x87, 0x3a, 0x06, 0x95, 0xc4, 0xbd,
  0xed, 0x4b, 0xd4, 0xbd, 0xab, 0x72, 0x80, 0xbb, 0x37, 0xbe, 0x91, 0x3e,
  0x9a, 0xfd, 0xc0, 0x3d, 0x5a, 0xaf, 0xe4, 0x3c, 0x67, 0x00, 0x10, 0x3c,
  0x4a, 0x24, 0x12, 0x3e, 0x8d, 0xe5, 0xe0, 0x3d, 0xf0, 0xa8, 0x9a, 0xb7,
  0x69, 0x3c, 0xbd, 0xbc, 0x83, 0x6b, 0xfc, 0xbc, 0x7a, 0xd9, 0x47, 0x3f,
  0x52, 0xd3, 0x4f, 0xbe, 0xf0, 0xd7, 0x18, 0xbe, 0xa5, 0xfd, 0x50, 0xbd,
  0xb3, 0xf8, 0x3f, 0xbe, 0x0f, 0x00, 0xd4, 0xbc, 0x69, 0xec, 0x3a, 0xbd,
  0x38, 0x96, 0xa1, 0x3e, 0x2d, 0x17, 0xa1, 0xbb, 0xd0, 0xa4, 0x45, 0xbc,
  0xd3, 0x62, 0x98, 0xbd, 0x15, 0x2f, 0x18, 0x3d, 0x17, 0xd7, 0x6e, 0x3d,
  0xa1, 0xe9, 0x90, 0x3d, 0x8f, 0x04, 0x59, 0xbb, 0xa5, 0xe3, 0x7b, 0x3d,
  0x9a, 0x2a, 0x6a, 0x3b, 0xb9, 0x44, 0xe8, 0xbd, 0x71, 0x3c, 0xc6, 0x3d,
  0x5b, 0x61, 0x7a, 0xbd, 0x98, 0x0b, 0x13, 0xbd, 0xd5, 0x2c, 0xfb, 0x3c,
  0x17, 0x93, 0x64, 0xbe, 0x24, 0x84, 0xae, 0xbb, 0x8f, 0x8c, 0x18, 0x3d,
  0x66, 0x23, 0x95, 0xbc, 0x15, 0x30, 0x4c, 0xbe, 0xf7, 0xa3, 0x33, 0x3e,
  0x9f, 0xe8, 0x53, 0xbe, 0x6e, 0x49, 0x3e, 0xbe, 0x75, 0x17, 0xb9, 0xbb,
  0x5b, 0x24, 0xb4, 0x3d, 0x00, 0xe5, 0x1e, 0x3e, 0x83, 0x37, 0x40, 0x3d,
  0xce, 0xbd, 0x21, 0x3d, 0x14, 0x2a, 0xf1, 0x3d, 0x55, 0x67, 0x2d, 0x3e,
  0xc6, 0x76, 0xcf, 0xbc, 0x05, 0x72, 0xd0, 0xbe, 0x69, 0xef, 0x35, 0x3d,
  0xa6, 0xd5, 0x5b, 0x3e, 0xfa, 0x6c, 0x8c, 0xbd, 0xd7, 0x00, 0x54, 0x3e,
  0x67, 0x18, 0x2f, 0x3e, 0xd3, 0xd1, 0xbe, 0xbe, 0x74, 0xdd, 0xfe, 0x3c,
  0x22, 0x69, 0x41, 0x3d, 0x5f, 0x31, 0x32, 0x3e, 0x7f, 0x0a, 0xeb, 0x3b,
  0xb2, 0xe8, 0xfa, 0x3d, 0x8b, 0x4c, 0x4d, 0x3e, 0xf6, 0x37, 0x24, 0xbd,
  0xe2, 0x2e, 0x54, 0x3e, 0xf2, 0xbb, 0xcd, 0xbd, 0x30, 0xa1, 0x01, 0xbe,
  0xf9, 0x81, 0xbf, 0x3d, 0xaa, 0x63, 0x3e, 0x3e, 0x64, 0xf9, 0xaa, 0xbc,
  0xdf, 0xda, 0x2f, 0x3e, 0x9a, 0x2e, 0xe7, 0xbc, 0x9d, 0x01, 0x0f, 0xbd,
  0x17, 0xfa, 0x4c, 0x3d, 0x24, 0xca, 0x52, 0xbe, 0x30, 0xc8, 0xdf, 0x3d,
  0xc5, 0x3c, 0x43, 0xbd, 0xe9, 0xee, 0x36, 0xbe, 0xed, 0x8d, 0x42, 0x3d,
  0xbf, 0xf5, 0x4e, 0xbe, 0x74, 0x51, 0x48, 0x3e, 0xc8, 0xd5, 0x81, 0x3e,
  0x71, 0xe3, 0xb3, 0xbd, 0x92, 0xa2, 0x91, 0x3c, 0xab, 0xc0, 0xfb, 0x3d,
  0x88, 0xf2, 0xaa, 0xbd, 0xd8, 0xfb, 0xc6, 0x3c, 0xcf, 0xe7, 0x19, 0xbe,
  0xbd, 0x3d, 0xf5, 0x3b, 0x18, 0x62, 0x5f, 0x3e, 0x11, 0x48, 0x6a, 0xbe,
  0xac, 0xf2, 0x75, 0x3e, 0x96, 0xf0, 0x37, 0xbd, 0x07, 0xcf, 0xd3, 0xbc,
  0xce, 0x4c, 0xf2, 0xbd, 0xbd, 0x90, 0x7d, 0xbe, 0xc6, 0x22, 0xbe, 0x3e,
  0xa2, 0xbb, 0x1b, 0x3e, 0xd9, 0xdc, 0xb2, 0xbd, 0x47, 0x5d, 0x2e, 0xbd,
  0xc2, 0x96, 0x5a, 0xbc, 0x78, 0x00, 0xcb, 0xbc, 0x2f, 0x67, 0x90, 0x3d,
  0x7a, 0x4c, 0x3c, 0xbd, 0x40, 0xe1, 0xf9, 0x3d, 0x0d, 0x0f, 0x11, 0x3e,
  0x5b, 0xc7, 0x30, 0xbe, 0x0d, 0xae, 0x49, 0xbd, 0x90, 0x65, 0x48, 0xbc,
  0xae, 0x89, 0x6e, 0x3d, 0x45, 0xe9, 0x12, 0xbc, 0x3d, 0x90, 0x61, 0x3d,
  0xe7, 0x6a, 0xa1, 0x3e, 0xbc, 0x40, 0x1e, 0xbd, 0xa9, 0x92, 0xdf, 0xbe,
  0xa2, 0x26, 0x15, 0xbe, 0xcd, 0xe0, 0x08, 0x3c, 0xfa, 0x98, 0x82, 0x3a,
  0x5a, 0xe2, 0xd7, 0xbd, 0x67, 0x34, 0x14, 0xbe, 0xda, 0x40, 0xc3, 0xbe,
  0x34, 0x83, 0x8e, 0x3c, 0xc1, 0x47, 0x3e, 0xbe, 0x89, 0x5d, 0x40, 0xbe,
  0x8f, 0xd7, 0xb7, 0x3b, 0x66, 0xbb, 0xb0, 0x3d, 0x94, 0x43, 0x05, 0x3e,
  0x46, 0x01, 0xff, 0x3d, 0x3f, 0x96, 0x21, 0x3e, 0x4b, 0x49, 0xf6, 0xbc,
  0x58, 0x4a, 0x05, 0xbe, 0x19, 0xbb, 0xe3, 0x3c, 0xdf, 0x81, 0xb7, 0x3d,
  0x7b, 0x79, 0x9a, 0xbc, 0x98, 0x14, 0xcc, 0x3d, 0xbf, 0xba, 0x8d, 0x3d,
  0xfc, 0x4b, 0x55, 0xbe, 0xb9, 0xc4, 0x9b, 0x3d, 0x59, 0xbd, 0x58, 0xbe,
  0x99, 0x7b, 0x9b, 0x39, 0x23, 0x09, 0xd6, 0x3b, 0xf1, 0x7d, 0xc7, 0xbc,
  0x7c, 0x07, 0x53, 0x3b, 0xb6, 0x66, 0xf9, 0x3d, 0xee, 0x3b, 0x12, 0x3d,
  0x46, 0xfe, 0xff, 0xff, 0x10, 0x00, 0x00, 0x00, 0x05, 0x00, 0x00, 0x00,
  0x14, 0x00, 0x00, 0x00, 0x2c, 0x00, 0x00, 0x00, 0x02, 0x00, 0x00, 0x00,
  0x10, 0x00, 0x00, 0x00, 0x70, 0x00, 0x00, 0x00, 0x17, 0x00, 0x00, 0x00,
  0x73, 0x65, 0x71, 0x75, 0x65, 0x6e, 0x74, 0x69, 0x61, 0x6c, 0x2f, 0x64,
  0x65, 0x6e, 0x73, 0x65, 0x2f, 0x4d, 0x61, 0x74, 0x4d, 0x75, 0x6c, 0x00,
  0x34, 0xfe, 0xff, 0xff, 0x2a, 0xff, 0xff, 0xff, 0x04, 0x00, 0x00, 0x00,
  0x08, 0x00, 0x00, 0x00, 0xff, 0xff, 0xff, 0xff, 0x70, 0x00, 0x00, 0x00,
  0x00, 0x00, 0x0e, 0x00, 0x18, 0x00, 0x08, 0x00, 0x07, 0x00, 0x0c, 0x00,
  0x10, 0x00, 0x14, 0x00, 0x0e, 0x00, 0x00, 0x00, 0x00, 0x00, 0x00, 0x02,
  0x10, 0x00, 0x00, 0x00, 0x04, 0x00, 0x00, 0x00, 0x10, 0x00, 0x00, 0x00,
  0x2c, 0x00, 0x00, 0x00, 0x01, 0x00, 0x00, 0x00, 0x02, 0x00, 0x00, 0x00,
  0x18, 0x00, 0x00, 0x00, 0x73, 0x65, 0x71, 0x75, 0x65, 0x6e, 0x74, 0x69,
  0x61, 0x6c, 0x2f, 0x66, 0x6c, 0x61, 0x74, 0x74, 0x65, 0x6e, 0x2f, 0x43,
  0x6f, 0x6e, 0x73, 0x74, 0x00, 0x00, 0x00, 0x00, 0x9c, 0xfe, 0xff, 0xff,
  0x92, 0xff, 0xff, 0xff, 0x04, 0x00, 0x00, 0x00, 0x10, 0x00, 0x00, 0x00,
  0xdc, 0x30, 0x20, 0x3e, 0xd5, 0x53, 0xa1, 0xbf, 0xad, 0xbf, 0x68, 0x3f,
  0x46, 0xab, 0x11, 0xbf, 0x0a, 0xff, 0xff, 0xff, 0x10, 0x00, 0x00, 0x00,
  0x03, 0x00, 0x00, 0x00, 0x10, 0x00, 0x00, 0x00, 0x3c, 0x00, 0x00, 0x00,
  0x01, 0x00, 0x00, 0x00, 0x04, 0x00, 0x00, 0x00, 0x29, 0x00, 0x00, 0x00,
  0x73, 0x65, 0x71, 0x75, 0x65, 0x6e, 0x74, 0x69, 0x61, 0x6c, 0x2f, 0x64,
  0x65, 0x6e, 0x73, 0x65, 0x5f, 0x31, 0x2f, 0x42, 0x69, 0x61, 0x73, 0x41,
  0x64, 0x64, 0x2f, 0x52, 0x65, 0x61, 0x64, 0x56, 0x61, 0x72, 0x69, 0x61,
  0x62, 0x6c, 0x65, 0x4f, 0x70, 0x00, 0x00, 0x00, 0x60, 0xff, 0xff, 0xff,
  0x00, 0x00, 0x06, 0x00, 0x08, 0x00, 0x04, 0x00, 0x06, 0x00, 0x00, 0x00,
  0x04, 0x00, 0x00, 0x00, 0x40, 0x00, 0x00, 0x00, 0x33, 0x75, 0x12, 0x3f,
  0xe1, 0x8b, 0x86, 0xbf, 0x88, 0x33, 0x0d, 0x40, 0x90, 0x85, 0xab, 0x3f,
  0xa6, 0xa2, 0x5d, 0x3f, 0xab, 0x6e, 0x82, 0x3f, 0x4d, 0x52, 0x8b, 0x3e,
  0xfd, 0x26, 0x98, 0xbf, 0x5f, 0x16, 0x6f, 0xbf, 0x9e, 0xf7, 0xb7, 0x3f,
  0xef, 0xf7, 0xf3, 0xbc, 0xea, 0x71, 0x52, 0x3f, 0x6a, 0x4b, 0x3b, 0x3e,
  0x25, 0x94, 0x12, 0xbf, 0x9e, 0x6e, 0x41, 0x40, 0x73, 0x09, 0x2f, 0xbf,
  0xae, 0xff, 0xff, 0xff, 0x10, 0x00, 0x00, 0x00, 0x02, 0x00, 0x00, 0x00,
  0x10, 0x00, 0x00, 0x00, 0x3c, 0x00, 0x00, 0x00, 0x01, 0x00, 0x00, 0x00,
  0x10, 0x00, 0x00, 0x00, 0x27, 0x00, 0x00, 0x00, 0x73, 0x65, 0x71, 0x75,
  0x65, 0x6e, 0x74, 0x69, 0x61, 0x6c, 0x2f, 0x64, 0x65, 0x6e, 0x73, 0x65,
  0x2f, 0x42, 0x69, 0x61, 0x73, 0x41, 0x64, 0x64, 0x2f, 0x52, 0x65, 0x61,
  0x64, 0x56, 0x61, 0x72, 0x69, 0x61, 0x62, 0x6c, 0x65, 0x4f, 0x70, 0x00,
  0x04, 0x00, 0x06, 0x00, 0x04, 0x00, 0x00, 0x00, 0x00, 0x00, 0x0e, 0x00,
  0x14, 0x00, 0x04, 0x00, 0x00, 0x00, 0x08, 0x00, 0x0c, 0x00, 0x10, 0x00,
  0x0e, 0x00, 0x00, 0x00, 0x10, 0x00, 0x00, 0x00, 0x01, 0x00, 0x00, 0x00,
  0x1c, 0x00, 0x00, 0x00, 0x2c, 0x00, 0x00, 0x00, 0x04, 0x00, 0x00, 0x00,
  0x01, 0x00, 0x00, 0x00, 0x40, 0x00, 0x00, 0x00, 0x03, 0x00, 0x00, 0x00,
  0x01, 0x00, 0x00, 0x00, 0x0c, 0x00, 0x00, 0x00, 0x63, 0x6f, 0x6e, 0x76,
  0x32, 0x64, 0x5f, 0x69, 0x6e, 0x70, 0x75, 0x74, 0x00, 0x00, 0x00, 0x00,
  0xfc, 0xff, 0xff, 0xff, 0x04, 0x00, 0x04, 0x00, 0x04, 0x00, 0x00, 0x0000
};

unsigned int model_tflite_len = 12384;// Fill the int in `src/model.cc` here